
#ifndef ENHANCED_ACTIVITY_MODEL_H
#define ENHANCED_ACTIVITY_MODEL_H

const unsigned int enhanced_activity_model_len = 9424;

const unsigned char enhanced_activity_model[9424] = {
    0x1c, 0x00, 0x00, 0x00, 0x54, 0x46, 0x4c, 0x33,
    0x14, 0x00, 0x20, 0x00, 0x1c, 0x00, 0x18, 0x00,
    0x14, 0x00, 0x10, 0x00, 0x0c, 0x00, 0x00, 0x00,
    0x08, 0x00, 0x04, 0x00, 0x14, 0x00, 0x00, 0x00,
    0x1c, 0x00, 0x00, 0x00, 0x98, 0x00, 0x00, 0x00,
    0xf0, 0x00, 0x00, 0x00, 0x90, 0x1b, 0x00, 0x00,
    0xa0, 0x1b, 0x00, 0x00, 0x5c, 0x24, 0x00, 0x00,
    0x03, 0x00, 0x00, 0x00, 0x01, 0x00, 0x00, 0x00,
    0x10, 0x00, 0x00, 0x00, 0x00, 0x00, 0x0a, 0x00,
    0x10, 0x00, 0x0c, 0x00, 0x08, 0x00, 0x04, 0x00,
    0x0a, 0x00, 0x00, 0x00, 0x0c, 0x00, 0x00, 0x00,
    0x1c, 0x00, 0x00, 0x00, 0x3c, 0x00, 0x00, 0x00,
    0x0f, 0x00, 0x00, 0x00, 0x73, 0x65, 0x72, 0x76,
    0x69, 0x6e, 0x67, 0x5f, 0x64, 0x65, 0x66, 0x61,
    0x75, 0x6c, 0x74, 0x00, 0x01, 0x00, 0x00, 0x00,
    0x04, 0x00, 0x00, 0x00, 0x90, 0xff, 0xff, 0xff,
    0x0d, 0x00, 0x00, 0x00, 0x04, 0x00, 0x00, 0x00,
    0x08, 0x00, 0x00, 0x00, 0x6f, 0x75, 0x74, 0x70,
    0x75, 0x74, 0x5f, 0x30, 0x00, 0x00, 0x00, 0x00,
    0x01, 0x00, 0x00, 0x00, 0x04, 0x00, 0x00, 0x00,
    0x52, 0xe4, 0xff, 0xff, 0x04, 0x00, 0x00, 0x00,
    0x0f, 0x00, 0x00, 0x00, 0x6b, 0x65, 0x72, 0x61,
    0x73, 0x5f, 0x74, 0x65, 0x6e, 0x73, 0x6f, 0x72,
    0x5f, 0x34, 0x35, 0x00, 0x02, 0x00, 0x00, 0x00,
    0x34, 0x00, 0x00, 0x00, 0x04, 0x00, 0x00, 0x00,
    0xdc, 0xff, 0xff, 0xff, 0x10, 0x00, 0x00, 0x00,
    0x04, 0x00, 0x00, 0x00, 0x13, 0x00, 0x00, 0x00,
    0x43, 0x4f, 0x4e, 0x56, 0x45, 0x52, 0x53, 0x49,
    0x4f, 0x4e, 0x5f, 0x4d, 0x45, 0x54, 0x41, 0x44,
    0x41, 0x54, 0x41, 0x00, 0x08, 0x00, 0x0c, 0x00,
    0x08, 0x00, 0x04, 0x00, 0x08, 0x00, 0x00, 0x00,
    0x0f, 0x00, 0x00, 0x00, 0x04, 0x00, 0x00, 0x00,
    0x13, 0x00, 0x00, 0x00, 0x6d, 0x69, 0x6e, 0x5f,
    0x72, 0x75, 0x6e, 0x74, 0x69, 0x6d, 0x65, 0x5f,
    0x76, 0x65, 0x72, 0x73, 0x69, 0x6f, 0x6e, 0x00,
    0x11, 0x00, 0x00, 0x00, 0x9c, 0x1a, 0x00, 0x00,
    0x94, 0x1a, 0x00, 0x00, 0x84, 0x19, 0x00, 0x00,
    0x74, 0x13, 0x00, 0x00, 0x24, 0x13, 0x00, 0x00,
    0x94, 0x12, 0x00, 0x00, 0x6c, 0x12, 0x00, 0x00,
    0xdc, 0x10, 0x00, 0x00, 0xcc, 0x08, 0x00, 0x00,
    0xbc, 0x00, 0x00, 0x00, 0xb4, 0x00, 0x00, 0x00,
    0xac, 0x00, 0x00, 0x00, 0xa4, 0x00, 0x00, 0x00,
    0x9c, 0x00, 0x00, 0x00, 0x94, 0x00, 0x00, 0x00,
    0x74, 0x00, 0x00, 0x00, 0x04, 0x00, 0x00, 0x00,
    0x12, 0xe5, 0xff, 0xff, 0x04, 0x00, 0x00, 0x00,
    0x60, 0x00, 0x00, 0x00, 0x0c, 0x00, 0x00, 0x00,
    0x08, 0x00, 0x0e, 0x00, 0x08, 0x00, 0x04, 0x00,
    0x08, 0x00, 0x00, 0x00, 0x10, 0x00, 0x00, 0x00,
    0x28, 0x00, 0x00, 0x00, 0x00, 0x00, 0x06, 0x00,
    0x08, 0x00, 0x04, 0x00, 0x06, 0x00, 0x00, 0x00,
    0x04, 0x00, 0x00, 0x00, 0x01, 0x00, 0x00, 0x00,
    0xea, 0x03, 0x00, 0x00, 0x0c, 0x00, 0x18, 0x00,
    0x14, 0x00, 0x10, 0x00, 0x0c, 0x00, 0x04, 0x00,
    0x0c, 0x00, 0x00, 0x00, 0x28, 0x05, 0xa7, 0xeb,
    0x4b, 0xa0, 0x38, 0x59, 0x02, 0x00, 0x00, 0x00,
    0x02, 0x00, 0x00, 0x00, 0x04, 0x00, 0x00, 0x00,
    0x06, 0x00, 0x00, 0x00, 0x32, 0x2e, 0x32, 0x30,
    0x2e, 0x30, 0x00, 0x00, 0x7e, 0xe5, 0xff, 0xff,
    0x04, 0x00, 0x00, 0x00, 0x10, 0x00, 0x00, 0x00,
    0x32, 0x2e, 0x31, 0x37, 0x2e, 0x30, 0x00, 0x00,
    0x00, 0x00, 0x00, 0x00, 0x00, 0x00, 0x00, 0x00,
    0x94, 0xdd, 0xff, 0xff, 0x98, 0xdd, 0xff, 0xff,
    0x9c, 0xdd, 0xff, 0xff, 0xa0, 0xdd, 0xff, 0xff,
    0xa4, 0xdd, 0xff, 0xff, 0xae, 0xe5, 0xff, 0xff,
    0x04, 0x00, 0x00, 0x00, 0x00, 0x08, 0x00, 0x00,
    0xf6, 0xc9, 0x04, 0x35, 0xea, 0x07, 0x04, 0xc0,
    0x17, 0xf1, 0x17, 0x23, 0x1e, 0x1a, 0x07, 0x10,
    0x1c, 0xba, 0x40, 0xd2, 0xbd, 0xfd, 0x02, 0xfb,
    0x50, 0xf5, 0x02, 0x03, 0xb8, 0xf6, 0xea, 0x1c,
    0x1f, 0x14, 0xe9, 0x40, 0xf8, 0x09, 0x11, 0x11,
    0x0c, 0x43, 0xce, 0xf0, 0xed, 0x7f, 0xf8, 0x16,
    0xd2, 0xf1, 0xf9, 0x4e, 0x2d, 0x5f, 0x1c, 0x32,
    0x19, 0xdf, 0x23, 0xa9, 0x3d, 0x10, 0x08, 0x05,
    0x0e, 0xe6, 0x10, 0xc0, 0xfd, 0x17, 0xbc, 0xf8,
    0xf4, 0x0f, 0x1e, 0x1b, 0xd0, 0x1e, 0x05, 0xe8,
    0xf5, 0x08, 0xec, 0x18, 0x2c, 0xf6, 0x04, 0xaa,
    0xeb, 0x11, 0x88, 0x05, 0x1c, 0x41, 0x0c, 0xdb,
    0x0a, 0xdb, 0xf6, 0xf6, 0xdc, 0x0a, 0xcd, 0x19,
    0xd2, 0xe3, 0x0e, 0xea, 0x15, 0x11, 0x1e, 0xf7,
    0xa0, 0x81, 0xfa, 0xf9, 0xbf, 0x07, 0x2b, 0xd1,
    0xb8, 0x04, 0xe9, 0xfd, 0x04, 0xd6, 0x47, 0xde,
    0xfb, 0xe9, 0x12, 0xa9, 0xe1, 0x0f, 0xbd, 0x40,
    0x0a, 0x16, 0x07, 0x10, 0xb7, 0x07, 0xfe, 0x06,
    0x03, 0xec, 0x21, 0x0d, 0x3b, 0xce, 0x07, 0x81,
    0xc9, 0xfb, 0xe4, 0xd9, 0x03, 0x32, 0x03, 0x07,
    0x12, 0x01, 0xff, 0x10, 0x9e, 0xd7, 0xb2, 0x02,
    0xd4, 0xf6, 0xf7, 0xee, 0x01, 0x0d, 0xea, 0xfb,
    0x94, 0x82, 0xf2, 0xeb, 0x0f, 0x27, 0x11, 0xf8,
    0xea, 0xd0, 0xa9, 0xc1, 0xdf, 0xfe, 0x0e, 0x8c,
    0x1a, 0x27, 0xff, 0x16, 0x2c, 0x36, 0x39, 0xab,
    0xbf, 0xfc, 0x05, 0x0b, 0x30, 0x37, 0x0d, 0xd3,
    0x12, 0x34, 0xd2, 0xb6, 0x81, 0x1f, 0xfc, 0x00,
    0xd7, 0x39, 0xf6, 0xf8, 0x2e, 0x14, 0xf0, 0x02,
    0x06, 0x2e, 0x1c, 0x05, 0x0a, 0x1a, 0x11, 0x01,
    0x36, 0xfd, 0xbf, 0xfc, 0xed, 0x1d, 0x24, 0x1d,
    0x13, 0x2b, 0xee, 0x36, 0x05, 0x05, 0xba, 0x43,
    0x27, 0x28, 0xea, 0x2c, 0x06, 0xf7, 0x0b, 0x20,
    0x0a, 0xe6, 0x0e, 0xaf, 0xdd, 0x09, 0xc5, 0x29,
    0x02, 0xf6, 0xf6, 0xb8, 0xaa, 0x08, 0xcf, 0x01,
    0x10, 0xf6, 0xe2, 0xf4, 0x08, 0x02, 0x00, 0x06,
    0x0a, 0xd8, 0xe7, 0x02, 0xeb, 0xe7, 0xff, 0xda,
    0xf8, 0xf7, 0xf5, 0x81, 0x0b, 0xed, 0xfa, 0xf9,
    0x0f, 0xe5, 0xf5, 0xca, 0xb3, 0x28, 0x1d, 0xe3,
    0x07, 0x11, 0xfe, 0xbb, 0x24, 0xb2, 0x05, 0xdc,
    0x2e, 0xf0, 0x0d, 0x17, 0x04, 0xfa, 0xd5, 0x05,
    0x14, 0x3b, 0xe2, 0x36, 0x39, 0x5a, 0x1f, 0xff,
    0xd2, 0x08, 0xfe, 0xfd, 0x09, 0x22, 0xe6, 0xea,
    0x18, 0x61, 0xfe, 0xf0, 0x13, 0x14, 0xff, 0x22,
    0xff, 0x13, 0x37, 0xf9, 0x08, 0xf3, 0xec, 0xf1,
    0xfe, 0x0b, 0x05, 0xfe, 0x21, 0x59, 0x08, 0xf5,
    0x4d, 0x1b, 0xfa, 0xed, 0xf8, 0x36, 0x06, 0xd9,
    0x2f, 0x0b, 0xf3, 0x03, 0x1b, 0xc2, 0xfe, 0x4e,
    0x13, 0x34, 0x67, 0x21, 0x4b, 0x11, 0xf9, 0x7f,
    0x17, 0x26, 0xe2, 0x16, 0x14, 0x6e, 0x14, 0xe4,
    0xe3, 0xfd, 0xfd, 0xfe, 0x30, 0x52, 0x01, 0xf5,
    0x1e, 0x4a, 0xfa, 0x0a, 0x1a, 0x13, 0x04, 0x09,
    0x0c, 0xf2, 0x19, 0x26, 0x0b, 0xf2, 0xdd, 0xf6,
    0xfe, 0x03, 0xfc, 0xfa, 0x30, 0x12, 0xd0, 0xd9,
    0x0b, 0x18, 0xf5, 0xf2, 0xf4, 0x34, 0xf3, 0xcd,
    0x30, 0xde, 0x17, 0xfa, 0xff, 0xb1, 0xfd, 0x40,
    0xed, 0x1a, 0x41, 0x52, 0x4a, 0x11, 0xfc, 0x7f,
    0xd0, 0x14, 0xf1, 0x0a, 0x0c, 0x09, 0x11, 0x05,
    0xe4, 0xba, 0x81, 0xa6, 0x00, 0x0d, 0xc7, 0xc9,
    0xe1, 0x10, 0x91, 0x15, 0x1e, 0x11, 0xb1, 0x0a,
    0xce, 0xb6, 0x27, 0xaf, 0x00, 0xbf, 0x00, 0xb8,
    0x9c, 0xb5, 0xc2, 0xa8, 0x0a, 0x0a, 0xc1, 0xe3,
    0x11, 0xba, 0x12, 0x92, 0x9e, 0x22, 0x11, 0xdd,
    0x06, 0x01, 0xd6, 0x9a, 0x0a, 0xe9, 0xaf, 0x12,
    0x1f, 0x0a, 0xf5, 0x05, 0x06, 0x00, 0xb7, 0xfa,
    0xe4, 0x23, 0xca, 0x06, 0x18, 0x16, 0x01, 0xe3,
    0xff, 0xf1, 0xbf, 0xf8, 0xf1, 0x1c, 0x1b, 0xfe,
    0xd3, 0x25, 0xb1, 0x16, 0x13, 0x05, 0xec, 0xf5,
    0xb8, 0xe1, 0x0c, 0xb3, 0x33, 0x26, 0xf4, 0xe8,
    0xfa, 0xde, 0x05, 0xec, 0xef, 0x3c, 0xe7, 0xdc,
    0x14, 0xfe, 0x13, 0xee, 0xa3, 0x33, 0x17, 0xc8,
    0x1a, 0x0b, 0x0e, 0x84, 0x02, 0x81, 0xa2, 0x72,
    0x12, 0x4f, 0x44, 0xf2, 0x0c, 0x02, 0xac, 0x31,
    0x41, 0xbd, 0x40, 0x03, 0xf1, 0x2e, 0xff, 0xc0,
    0x0b, 0xe6, 0xfc, 0x33, 0xfc, 0x2a, 0x01, 0x09,
    0x09, 0x08, 0x36, 0x0b, 0x18, 0xcf, 0x08, 0xf4,
    0x11, 0x17, 0x92, 0x12, 0x22, 0x30, 0x0b, 0xf1,
    0x18, 0x21, 0x13, 0x29, 0xf4, 0x15, 0x00, 0x5b,
    0xf3, 0x3b, 0x0e, 0x28, 0x29, 0x0f, 0x0b, 0xff,
    0x07, 0xf5, 0x17, 0x7f, 0xb9, 0x0c, 0x42, 0x10,
    0xd6, 0x2e, 0xfe, 0xf6, 0x02, 0x14, 0x34, 0x02,
    0xec, 0x16, 0xc3, 0x04, 0xf4, 0xf6, 0xfb, 0xde,
    0x9e, 0xc7, 0xb9, 0xfd, 0x00, 0xfe, 0xec, 0xaf,
    0xe8, 0xba, 0xdf, 0x02, 0xf5, 0xc0, 0x00, 0x11,
    0xc9, 0x07, 0x33, 0xe1, 0xef, 0xb9, 0xce, 0x0f,
    0xfe, 0xfc, 0xb8, 0x00, 0xd1, 0xa1, 0xb5, 0x81,
    0xf2, 0x05, 0xfc, 0x0a, 0xf4, 0x0f, 0x27, 0xb1,
    0x1c, 0x0f, 0xd7, 0xc8, 0xc1, 0x94, 0xcc, 0x03,
    0x24, 0xef, 0x11, 0xd9, 0x12, 0x03, 0xd8, 0xc6,
    0xbf, 0x12, 0xf5, 0xfd, 0x0f, 0x0a, 0x08, 0x03,
    0xe8, 0xa3, 0x8b, 0xc3, 0x08, 0x07, 0xaa, 0xc3,
    0xc2, 0x09, 0x97, 0x06, 0x18, 0x04, 0x81, 0x02,
    0xf5, 0xbd, 0x16, 0xd1, 0x04, 0xad, 0x05, 0x9d,
    0x8d, 0xc1, 0xa9, 0x9b, 0x06, 0x0b, 0xf2, 0xd3,
    0x11, 0xbb, 0x11, 0x8c, 0x89, 0x0b, 0x10, 0xd2,
    0x09, 0x0b, 0xb7, 0xad, 0x01, 0xad, 0xa3, 0x04,
    0x26, 0xfc, 0x08, 0xff, 0x05, 0xff, 0xa2, 0x04,
    0xef, 0x06, 0x0f, 0x09, 0xf6, 0x04, 0x10, 0x02,
    0x04, 0xc7, 0x81, 0x06, 0x03, 0xff, 0xff, 0xfc,
    0xce, 0xf2, 0xa3, 0x10, 0xfb, 0x07, 0xfd, 0x1a,
    0xbb, 0xfc, 0x0c, 0xd5, 0x08, 0xb0, 0x06, 0x0e,
    0xff, 0xf8, 0xef, 0xef, 0xfc, 0xf0, 0xe9, 0x05,
    0x08, 0xf7, 0x08, 0x00, 0xa1, 0x0b, 0x21, 0xeb,
    0x16, 0x1f, 0xf0, 0xbe, 0xed, 0xd6, 0xec, 0xf9,
    0x0c, 0xed, 0x18, 0xf0, 0xfc, 0x1b, 0xc3, 0x09,
    0xc1, 0xe2, 0x0a, 0x8a, 0xd0, 0x8a, 0xa8, 0x02,
    0xbb, 0x04, 0x00, 0xfe, 0x87, 0x91, 0xe1, 0xa4,
    0xab, 0xb3, 0x01, 0xc6, 0xc1, 0xc6, 0xfc, 0x99,
    0xf1, 0x0b, 0xb6, 0x0c, 0x0c, 0x08, 0xf0, 0xfd,
    0xfb, 0xe8, 0xc9, 0xfc, 0xab, 0xe7, 0xd8, 0xd1,
    0x9c, 0x8d, 0x9f, 0xf8, 0xfb, 0x9f, 0xea, 0x03,
    0x97, 0xbe, 0xb4, 0x06, 0xbf, 0x06, 0x0d, 0x9b,
    0xef, 0xdf, 0xbd, 0xa8, 0x81, 0x14, 0x02, 0xdc,
    0x04, 0x35, 0x04, 0x06, 0x3f, 0x10, 0x04, 0x2c,
    0xf6, 0x29, 0xe8, 0xb7, 0xeb, 0x0a, 0xf0, 0xdd,
    0x1a, 0x1a, 0xee, 0xfd, 0x1f, 0x30, 0x25, 0xd4,
    0xd6, 0x0d, 0x31, 0x29, 0xd5, 0x0a, 0x0f, 0x24,
    0xaa, 0x1d, 0x1b, 0xc5, 0xf6, 0x07, 0x12, 0x04,
    0x4b, 0x04, 0x26, 0xdc, 0xd1, 0x16, 0x5d, 0x3e,
    0xeb, 0x14, 0x0d, 0x25, 0x5c, 0x44, 0x25, 0xdf,
    0x0e, 0x1d, 0x25, 0x16, 0x1b, 0x81, 0xfd, 0xcc,
    0x24, 0x01, 0x81, 0xc8, 0x17, 0x03, 0xbe, 0xa1,
    0x03, 0x16, 0x05, 0xfb, 0xe9, 0x08, 0x05, 0x0b,
    0x07, 0x0c, 0x04, 0xde, 0xf4, 0x06, 0x8a, 0xf5,
    0x0c, 0xb6, 0xb9, 0x05, 0x0d, 0x15, 0xc9, 0x93,
    0xa7, 0xd9, 0x10, 0xed, 0x02, 0x0c, 0xea, 0xac,
    0xa0, 0xfe, 0xf4, 0xd5, 0x03, 0xe7, 0xc5, 0xdd,
    0xff, 0xd2, 0x0e, 0xdd, 0xa4, 0xd2, 0xf7, 0xe3,
    0x88, 0x18, 0x10, 0x13, 0xf3, 0x10, 0x11, 0x0d,
    0x68, 0xdb, 0x1e, 0x2c, 0xf4, 0x15, 0x24, 0x20,
    0x51, 0x13, 0x01, 0xfd, 0xf2, 0x55, 0xfc, 0x3e,
    0x3f, 0x08, 0xf2, 0x51, 0x74, 0x18, 0x3a, 0xf5,
    0x28, 0x25, 0xfa, 0x11, 0xaa, 0x1a, 0x52, 0xed,
    0xff, 0x2d, 0x23, 0xff, 0x02, 0x81, 0x04, 0x76,
    0x2e, 0x14, 0x47, 0x17, 0xfd, 0x59, 0x07, 0xd1,
    0xd9, 0x02, 0x73, 0x36, 0x01, 0x0a, 0x1a, 0xf9,
    0x2b, 0xa4, 0xfa, 0x13, 0x3c, 0x93, 0x09, 0xd2,
    0xfa, 0x0f, 0xdd, 0x0d, 0x11, 0x08, 0x08, 0xff,
    0xe6, 0xc2, 0x8a, 0xcd, 0x03, 0x0b, 0xa4, 0xf7,
    0xa5, 0x06, 0x82, 0x07, 0x32, 0x13, 0xf8, 0x07,
    0xcb, 0xa0, 0x35, 0xa7, 0x02, 0x97, 0x01, 0xae,
    0xb6, 0xac, 0x93, 0xb1, 0x09, 0x12, 0xaf, 0xf7,
    0x0c, 0xcb, 0x0b, 0x81, 0x8a, 0x0a, 0x09, 0x91,
    0x07, 0x0c, 0xd2, 0xaa, 0x0a, 0xb7, 0xad, 0x11,
    0x26, 0x07, 0x0c, 0x02, 0x09, 0xfb, 0xbb, 0xfb,
    0x25, 0x36, 0x38, 0x1a, 0xc6, 0x24, 0x16, 0xff,
    0x67, 0x20, 0x02, 0x07, 0xca, 0x3c, 0x4f, 0x68,
    0x03, 0x3e, 0x16, 0x38, 0x7f, 0xe5, 0x17, 0x0c,
    0x17, 0xfc, 0xb8, 0xc9, 0xe6, 0x03, 0x05, 0xe9,
    0x0e, 0xa5, 0x04, 0xfc, 0xfe, 0xd4, 0xb9, 0x78,
    0x18, 0x52, 0x38, 0x54, 0x1d, 0x36, 0x1a, 0x06,
    0xdf, 0xf3, 0x29, 0xdd, 0x0f, 0x37, 0xf3, 0x05,
    0xdb, 0xbd, 0x31, 0x0f, 0x1d, 0x0b, 0x06, 0x0e,
    0xf0, 0x14, 0xfa, 0x1c, 0x27, 0x1f, 0xfc, 0x2d,
    0x0d, 0x10, 0xd7, 0xbe, 0x1e, 0x29, 0xf9, 0x10,
    0xe4, 0x16, 0xca, 0x24, 0x37, 0xf1, 0xfb, 0xda,
    0xe8, 0xf6, 0x0a, 0x1d, 0x15, 0x12, 0x1d, 0xe3,
    0xd1, 0xfd, 0xfd, 0xbf, 0xf1, 0x22, 0x08, 0xf1,
    0x21, 0x0a, 0x07, 0xf7, 0xe1, 0x08, 0x0c, 0x03,
    0x04, 0xde, 0x08, 0x81, 0x43, 0xe6, 0xca, 0x2f,
    0xe4, 0x36, 0x0d, 0x15, 0x1f, 0x06, 0x1d, 0x27,
    0xcc, 0xef, 0x16, 0xfe, 0xe3, 0xf2, 0xf8, 0x5b,
    0xf4, 0x85, 0x81, 0x24, 0xf5, 0xec, 0xe9, 0xe4,
    0xc5, 0xda, 0xc8, 0xfe, 0xe0, 0xe3, 0x0f, 0xec,
    0xae, 0x1a, 0x02, 0xee, 0xd4, 0x9e, 0x10, 0x04,
    0x1a, 0x0d, 0xeb, 0x1b, 0xdd, 0xb3, 0x1d, 0xd6,
    0x20, 0x04, 0xf8, 0x10, 0xc3, 0xeb, 0x16, 0x0a,
    0x10, 0x02, 0xee, 0x30, 0x00, 0x1e, 0xde, 0xe3,
    0x19, 0xbc, 0xf6, 0xf4, 0xf0, 0xaf, 0xa9, 0x9f,
    0x45, 0x15, 0x28, 0x0a, 0x13, 0xf7, 0x29, 0x46,
    0xf3, 0x47, 0x01, 0xf2, 0x16, 0xf9, 0x22, 0x36,
    0x11, 0x0f, 0x13, 0x1b, 0x0d, 0x14, 0x33, 0x0e,
    0x09, 0x20, 0xf1, 0x05, 0xd0, 0xfd, 0x2c, 0x2f,
    0xef, 0xff, 0x29, 0xf1, 0x05, 0x0a, 0x3b, 0x7f,
    0x18, 0x0e, 0x02, 0x1b, 0x1c, 0xf3, 0x11, 0x3d,
    0xf0, 0x0a, 0x09, 0xf5, 0x03, 0x33, 0x18, 0xbf,
    0xc1, 0xe8, 0xea, 0x1e, 0xea, 0xdc, 0xee, 0xf1,
    0xc5, 0xc9, 0xbb, 0x52, 0x18, 0xfb, 0x4f, 0xf7,
    0xcd, 0xe3, 0xfd, 0xfd, 0x31, 0x66, 0x02, 0x18,
    0x24, 0xf4, 0xe5, 0x4b, 0x25, 0x4c, 0xf2, 0x35,
    0x17, 0xe0, 0x1e, 0x1e, 0x28, 0xe0, 0x3c, 0xfd,
    0xf9, 0xa7, 0x2c, 0xed, 0x37, 0xb5, 0xb6, 0xc2,
    0x96, 0x26, 0x42, 0x0f, 0xe1, 0x98, 0xa1, 0xed,
    0xe1, 0xdd, 0xcf, 0x81, 0x46, 0x11, 0xe5, 0xc9,
    0xb5, 0xa7, 0x1d, 0x03, 0x5a, 0x2b, 0x04, 0x1c,
    0x20, 0x04, 0x1f, 0xe7, 0x07, 0x0c, 0xf0, 0x2c,
    0xdc, 0xf8, 0x06, 0xe9, 0xf0, 0xfd, 0xec, 0xfa,
    0x06, 0x09, 0xbb, 0x0a, 0x10, 0xfb, 0x08, 0xca,
    0xe5, 0x2a, 0xca, 0x1b, 0xb7, 0x1c, 0xf1, 0xfc,
    0xce, 0x27, 0xfe, 0x12, 0xee, 0xec, 0x43, 0x0c,
    0x0c, 0x25, 0x07, 0x02, 0xfe, 0xd3, 0x12, 0x3c,
    0xc1, 0xdd, 0x13, 0x69, 0x08, 0x5b, 0x12, 0xe3,
    0x15, 0x18, 0xfe, 0x1f, 0x01, 0x81, 0x03, 0xca,
    0x37, 0xf2, 0x50, 0xfe, 0xe1, 0x11, 0x02, 0x08,
    0x57, 0x11, 0xf8, 0x0a, 0xfa, 0x1e, 0x2e, 0x2b,
    0x46, 0x13, 0xf0, 0x17, 0x2a, 0xdc, 0x15, 0xf3,
    0xdc, 0x24, 0xb0, 0x08, 0xfb, 0x29, 0x4e, 0x12,
    0x05, 0x3a, 0x2a, 0x02, 0xf5, 0xea, 0x01, 0x7f,
    0x03, 0x33, 0x14, 0x1f, 0x11, 0x0d, 0xf5, 0x12,
    0xf1, 0xfe, 0x50, 0x0f, 0x07, 0x30, 0x18, 0xef,
    0x0a, 0x07, 0xec, 0x03, 0x1e, 0xf5, 0xfc, 0x07,
    0xb9, 0x98, 0x00, 0x8d, 0xdc, 0x8e, 0xa6, 0x12,
    0xaa, 0xff, 0x01, 0xf9, 0x84, 0x98, 0xc9, 0xae,
    0x95, 0xa5, 0x00, 0x9d, 0xad, 0x99, 0xfd, 0xef,
    0xff, 0xd2, 0xdb, 0x07, 0x02, 0x0b, 0xf3, 0x00,
    0xfc, 0xc0, 0xa3, 0xf8, 0xa3, 0xdf, 0xd9, 0xcb,
    0xf0, 0x97, 0x90, 0xcb, 0x03, 0xc2, 0x03, 0xf6,
    0xf4, 0xfe, 0xab, 0x0b, 0xbe, 0x0c, 0x0b, 0x81,
    0x0c, 0xc9, 0xe0, 0xcf, 0xaa, 0xff, 0x01, 0xe4,
    0x32, 0x18, 0x14, 0xe5, 0x0b, 0x15, 0x12, 0x23,
    0x0f, 0x03, 0x05, 0xf8, 0x04, 0x04, 0x25, 0xf6,
    0x29, 0x09, 0xfa, 0x1b, 0x18, 0x41, 0xed, 0x23,
    0x1d, 0x08, 0xf3, 0xef, 0x85, 0x06, 0xed, 0x0c,
    0xf4, 0xf2, 0x2d, 0xf2, 0x35, 0xdb, 0x11, 0x06,
    0x15, 0xfe, 0x21, 0x06, 0xf4, 0xf8, 0xf6, 0x29,
    0xf9, 0x23, 0x1a, 0x00, 0x11, 0x11, 0x0c, 0xd3,
    0xc5, 0xe3, 0x17, 0x00, 0x1b, 0x81, 0xfd, 0xb2,
    0x3f, 0x0c, 0x03, 0xfd, 0x3a, 0xfa, 0x23, 0xf3,
    0xdf, 0xf4, 0x04, 0xe2, 0xf2, 0xed, 0x06, 0xd9,
    0xe8, 0xde, 0xff, 0xee, 0xeb, 0x33, 0xde, 0x13,
    0x4f, 0x3b, 0x9d, 0x2c, 0xbf, 0x14, 0xe2, 0x22,
    0x02, 0x5c, 0x1a, 0xbb, 0x1a, 0x27, 0x3d, 0x12,
    0xd3, 0x14, 0xf7, 0x15, 0xfe, 0xe3, 0x1a, 0x17,
    0x0a, 0x12, 0x13, 0x7f, 0xae, 0xfa, 0x38, 0xf6,
    0x26, 0x32, 0xfd, 0xd5, 0xac, 0xd2, 0xea, 0x05,
    0x21, 0x1a, 0x02, 0x0c, 0x33, 0x0e, 0x0e, 0x40,
    0xf1, 0x10, 0xfc, 0x86, 0x1f, 0x0b, 0x0c, 0x08,
    0xf5, 0x2a, 0x1e, 0x1d, 0x35, 0xf9, 0x0b, 0x1b,
    0x1f, 0xf9, 0x66, 0xe8, 0xdc, 0xe9, 0x0b, 0x1d,
    0xa5, 0xdf, 0xe4, 0x83, 0x14, 0xfe, 0x1c, 0x47,
    0x4e, 0xed, 0x0c, 0x1f, 0x13, 0x04, 0xfb, 0x17,
    0x02, 0x17, 0xf6, 0xf3, 0x7f, 0xdd, 0x4f, 0xeb,
    0xdb, 0xff, 0x2f, 0x1a, 0x18, 0xd4, 0xb6, 0xe8,
    0x17, 0x47, 0x15, 0x19, 0x38, 0x5f, 0x0b, 0x07,
    0x38, 0xea, 0x01, 0xfc, 0x25, 0x7f, 0x34, 0x4f,
    0xbb, 0x47, 0xfd, 0x29, 0x3a, 0x03, 0xe9, 0xe0,
    0xe9, 0xe9, 0xfb, 0xe4, 0x2e, 0x0b, 0x49, 0xe2,
    0x01, 0xce, 0xfc, 0x1d, 0x0c, 0x20, 0x0e, 0x29,
    0x22, 0x33, 0x6f, 0xfd, 0x02, 0x65, 0x26, 0xfe,
    0x3d, 0xe8, 0x2f, 0xbc, 0x14, 0xd9, 0x01, 0x54,
    0xf2, 0x16, 0xe7, 0xf2, 0x42, 0x10, 0x0a, 0x23,
    0xff, 0x10, 0xc9, 0x0f, 0x17, 0x0a, 0x17, 0xec,
    0xff, 0xf1, 0x81, 0x02, 0x15, 0x04, 0x08, 0xf6,
    0x03, 0xbb, 0x04, 0x0d, 0xf6, 0x0d, 0xf5, 0x18,
    0x0a, 0x09, 0x33, 0xd3, 0xee, 0xc0, 0x04, 0xfb,
    0xfd, 0x0a, 0xfe, 0x06, 0x0e, 0xaa, 0xcb, 0xdb,
    0xeb, 0xf5, 0x11, 0x04, 0xbe, 0x0a, 0xdb, 0xf6,
    0x0a, 0x22, 0xf8, 0xd3, 0xf1, 0xe1, 0xd5, 0xf8,
    0xe9, 0xa6, 0x22, 0x91, 0x13, 0xd3, 0xf7, 0xaf,
    0x22, 0x3b, 0x16, 0x8b, 0xf6, 0xff, 0x8c, 0x31,
    0x17, 0x23, 0xf4, 0x14, 0xc0, 0xeb, 0x15, 0x0c,
    0x1e, 0x37, 0xde, 0x14, 0x1e, 0xfc, 0x0e, 0x06,
    0xe0, 0x2c, 0xfa, 0x1d, 0xbc, 0x1a, 0x0c, 0x01,
    0xfb, 0x0b, 0x33, 0x0a, 0xf9, 0xf2, 0x60, 0x57,
    0x3e, 0xfb, 0x06, 0xec, 0x13, 0xce, 0x05, 0x16,
    0xf7, 0x03, 0xf7, 0x20, 0x09, 0x48, 0x1b, 0x10,
    0x12, 0x01, 0xb5, 0x1c, 0x0c, 0x81, 0xe3, 0xb9,
    0xba, 0xed, 0xff, 0xff, 0x04, 0x00, 0x00, 0x00,
    0x00, 0x08, 0x00, 0x00, 0xc1, 0x11, 0x57, 0xbf,
    0x1a, 0xd4, 0xec, 0x3e, 0xa9, 0x4f, 0x50, 0x3e,
    0x9b, 0x8c, 0x71, 0xbf, 0x90, 0x8f, 0x4c, 0xbf,
    0x94, 0xa1, 0x10, 0xbf, 0xec, 0x88, 0xd8, 0xbe,
    0x3a, 0x0e, 0x0f, 0xbe, 0x01, 0x04, 0xab, 0xbf,
    0xc5, 0x53, 0x5a, 0x3d, 0x1c, 0x0b, 0xb9, 0x3e,
    0x00, 0x41, 0x9a, 0xbe, 0xec, 0x75, 0x90, 0x3e,
    0xd9, 0xa3, 0xb5, 0x3f, 0x1f, 0x23, 0x84, 0xbf,
    0x38, 0x2f, 0x42, 0x3f, 0x99, 0x3d, 0x23, 0xbe,
    0xa4, 0xeb, 0xa8, 0xbe, 0x59, 0xf5, 0xae, 0xbd,
    0x46, 0x99, 0xd5, 0xbe, 0xf6, 0x18, 0xf2, 0x3e,
    0x66, 0x61, 0xad, 0xbe, 0xff, 0x5f, 0xc5, 0xbe,
    0x40, 0x2b, 0x43, 0x3e, 0x9c, 0x91, 0x72, 0xbe,
    0x6b, 0x5b, 0x1f, 0x3f, 0x52, 0xec, 0x46, 0xbf,
    0xf3, 0x6d, 0x17, 0xbf, 0x58, 0x2e, 0xfd, 0xbe,
    0x1c, 0x08, 0x84, 0xbe, 0xbc, 0xd4, 0xf9, 0x3d,
    0xf4, 0x56, 0x2d, 0xbf, 0x31, 0x94, 0xbc, 0xbd,
    0xa7, 0x45, 0x52, 0x3e, 0x7a, 0x92, 0xad, 0xbe,
    0xb6, 0x4c, 0x89, 0x3d, 0x97, 0xdc, 0xcc, 0xbd,
    0xf9, 0x03, 0x6b, 0x3e, 0x7e, 0x5b, 0xb3, 0x3e,
    0xd5, 0xa9, 0x0e, 0x3c, 0xf6, 0x30, 0x31, 0x3e,
    0xf8, 0xc4, 0xc6, 0xbe, 0x99, 0x75, 0x57, 0x3f,
    0x1e, 0x9a, 0x11, 0x3f, 0x74, 0xb7, 0xb7, 0x3d,
    0xea, 0xa9, 0x4b, 0xbf, 0x01, 0x2c, 0xcb, 0x3c,
    0x65, 0x5b, 0x82, 0x3f, 0x0c, 0x75, 0xef, 0xbd,
    0xde, 0x70, 0x17, 0x3f, 0x82, 0x73, 0x63, 0xbc,
    0x86, 0x8a, 0xa6, 0x3e, 0xf9, 0x7f, 0x1b, 0x3e,
    0x3b, 0x13, 0xca, 0xbe, 0xb8, 0x5a, 0x1a, 0x3e,
    0x1a, 0xb5, 0xf7, 0x3d, 0xc7, 0x82, 0x72, 0xbe,
    0xa7, 0x4b, 0xaa, 0xbd, 0xa1, 0x9a, 0xc2, 0xbd,
    0x68, 0xd2, 0x8b, 0x3d, 0xa9, 0xaa, 0xdb, 0xbe,
    0x69, 0xcc, 0xbc, 0x3b, 0x9d, 0x3f, 0x40, 0x3e,
    0xda, 0xc6, 0x9f, 0xbe, 0x95, 0x75, 0x24, 0x3e,
    0xe5, 0x05, 0x0f, 0x3e, 0x38, 0xfb, 0xed, 0xbd,
    0xf7, 0x0d, 0xd0, 0x3e, 0xf3, 0xfb, 0x96, 0xbe,
    0xd0, 0x1e, 0x80, 0xbe, 0x56, 0xaa, 0x0f, 0xbd,
    0x00, 0xf0, 0x02, 0x3f, 0x82, 0xab, 0x83, 0x3e,
    0x58, 0x9c, 0x70, 0x3e, 0xc3, 0xf7, 0xe4, 0x3d,
    0xeb, 0x35, 0x15, 0x3f, 0x5a, 0x8e, 0xcd, 0x3e,
    0x3e, 0x74, 0x74, 0xbe, 0xae, 0xbc, 0xe1, 0xbe,
    0x04, 0xeb, 0x15, 0xbc, 0x73, 0x21, 0xfb, 0x3d,
    0xcf, 0xe8, 0x0d, 0x3f, 0x1d, 0xb1, 0x31, 0xbe,
    0x68, 0xbf, 0x88, 0x3d, 0x44, 0x07, 0x00, 0x3f,
    0x96, 0x68, 0x80, 0xbe, 0xcb, 0x60, 0x11, 0xbe,
    0x3d, 0x7d, 0x77, 0x3e, 0x0d, 0x81, 0x6a, 0x3e,
    0xc4, 0x41, 0xf7, 0xbd, 0xcb, 0xd9, 0x24, 0xbe,
    0x6c, 0x97, 0xf5, 0xbd, 0xc1, 0xcb, 0xd0, 0x3c,
    0x8e, 0x6e, 0x36, 0xbe, 0xb2, 0xb6, 0x96, 0x3d,
    0x89, 0x12, 0x62, 0x3e, 0xf5, 0xd3, 0xbf, 0xbe,
    0x32, 0xba, 0x2b, 0xbe, 0x8b, 0x4e, 0xbd, 0xbe,
    0xbc, 0x82, 0xba, 0xbc, 0x5d, 0x9a, 0xa0, 0x3e,
    0xa2, 0x30, 0x50, 0x3e, 0xde, 0x17, 0x1a, 0x3e,
    0x5a, 0xe3, 0x59, 0x3f, 0x24, 0x9c, 0x00, 0xbe,
    0xd9, 0x30, 0x66, 0xbe, 0x2a, 0x45, 0xa0, 0x3e,
    0x8f, 0x24, 0x69, 0x3f, 0x63, 0x23, 0x1c, 0x3f,
    0xbf, 0x9a, 0x5d, 0xbe, 0xf9, 0x51, 0x20, 0x3e,
    0x93, 0xdc, 0xec, 0x3e, 0xf7, 0xbb, 0x48, 0x3d,
    0xd3, 0xb3, 0x70, 0x3f, 0xea, 0x94, 0x6d, 0xbd,
    0x56, 0xff, 0x07, 0xbe, 0x9b, 0x66, 0xc6, 0x3e,
    0x3e, 0xdb, 0xcd, 0xbe, 0x7e, 0x95, 0x93, 0xbc,
    0xb8, 0xa6, 0x06, 0x3e, 0x24, 0x1f, 0xb1, 0xbe,
    0x33, 0xe2, 0x2d, 0xbf, 0xf3, 0x96, 0x2a, 0xbe,
    0x9c, 0x10, 0xa3, 0xbe, 0xec, 0x4c, 0xbd, 0x3e,
    0x08, 0xf5, 0x12, 0x3d, 0x93, 0x2a, 0xa5, 0xbc,
    0xf9, 0xa0, 0xfb, 0xbd, 0x3c, 0xf3, 0xc7, 0xbd,
    0xa2, 0xc3, 0x8a, 0x3e, 0xd6, 0xc3, 0x11, 0x3f,
    0x92, 0xa1, 0x54, 0x3e, 0xc3, 0x6e, 0xa6, 0x3d,
    0xbe, 0x5f, 0xf5, 0x3d, 0x3d, 0x4d, 0xf6, 0x3e,
    0xf6, 0x4f, 0xe3, 0xbe, 0x1d, 0x6a, 0xcc, 0xbe,
    0x49, 0x97, 0x49, 0xbc, 0xab, 0x82, 0xa4, 0xbe,
    0xf0, 0x95, 0x36, 0xbf, 0xbd, 0x07, 0xc5, 0xbd,
    0x6c, 0xb5, 0x73, 0xbe, 0xd1, 0x49, 0xa9, 0x3e,
    0x9e, 0x3d, 0xe2, 0xbe, 0x36, 0x0f, 0xaa, 0x3e,
    0x16, 0x8d, 0x44, 0xbf, 0xbc, 0x60, 0xde, 0x3e,
    0xc9, 0x24, 0x24, 0xbe, 0x3e, 0xec, 0x74, 0x3d,
    0x97, 0xbf, 0x8d, 0xbd, 0xbd, 0x88, 0xed, 0x3d,
    0xdc, 0xad, 0xb1, 0x3d, 0x36, 0x73, 0xba, 0x3d,
    0x9c, 0x92, 0x33, 0xbf, 0x43, 0xe1, 0x72, 0xbe,
    0xba, 0xb5, 0x1b, 0xbe, 0x0a, 0xca, 0x20, 0x3f,
    0x33, 0xb8, 0xca, 0xbd, 0x52, 0x5d, 0x26, 0xbe,
    0x4c, 0xe0, 0x00, 0x3f, 0xcb, 0x25, 0xab, 0xbe,
    0x94, 0xa2, 0x94, 0x3e, 0x61, 0x96, 0x50, 0xbd,
    0xf5, 0xff, 0x98, 0x3e, 0x65, 0xb0, 0x59, 0x3c,
    0xaf, 0x47, 0x11, 0x3e, 0xdb, 0x98, 0x15, 0xbc,
    0xa3, 0x3c, 0x98, 0xbf, 0xef, 0x51, 0x8a, 0x3d,
    0xc1, 0x16, 0xc4, 0x3e, 0xb8, 0xa0, 0x39, 0x3f,
    0xbb, 0x7d, 0xa0, 0xbf, 0x03, 0x77, 0x01, 0x3f,
    0x74, 0xc3, 0xcc, 0x3e, 0x91, 0xae, 0xcb, 0xbe,
    0x8d, 0xac, 0x23, 0x3f, 0x02, 0xe5, 0xb8, 0x3e,
    0xc3, 0xef, 0xac, 0xbf, 0xa5, 0x56, 0x15, 0x3e,
    0x42, 0x21, 0x1a, 0xbe, 0x24, 0x8b, 0x05, 0x3f,
    0xa5, 0xd4, 0x25, 0xbe, 0xc6, 0x02, 0xf7, 0xbc,
    0x5c, 0xca, 0xd4, 0x3e, 0x47, 0xe2, 0xab, 0x3e,
    0x06, 0xd1, 0x39, 0x3f, 0x39, 0xcb, 0x1d, 0xbe,
    0x91, 0x82, 0xae, 0x3e, 0x32, 0xe7, 0x53, 0xbd,
    0xb3, 0x01, 0x43, 0x3e, 0xa1, 0xd0, 0x1c, 0xbc,
    0xce, 0xd5, 0x0f, 0xbd, 0xe9, 0xdb, 0xf5, 0xbe,
    0x42, 0x42, 0x62, 0x3e, 0xdc, 0x16, 0xa1, 0x3e,
    0x18, 0x3d, 0xea, 0xbe, 0x27, 0xa6, 0xb0, 0x3e,
    0x11, 0xee, 0x47, 0xbf, 0x84, 0x5f, 0xa3, 0xbf,
    0xb5, 0xfa, 0x98, 0xbe, 0x13, 0xa5, 0xdf, 0x3d,
    0xb6, 0x84, 0x93, 0xbe, 0x18, 0xcb, 0xb7, 0x3e,
    0x25, 0x9c, 0x4b, 0x3e, 0x48, 0x35, 0xda, 0x3e,
    0xc4, 0x26, 0xb2, 0x3f, 0x34, 0xa8, 0x42, 0xbf,
    0x56, 0xc4, 0x8b, 0x3e, 0x9d, 0x9e, 0xbd, 0xbf,
    0x22, 0xce, 0x83, 0xbe, 0x21, 0xf9, 0x99, 0xbf,
    0xc4, 0xcb, 0x08, 0xbe, 0x6a, 0xf4, 0x02, 0x3e,
    0x2a, 0x7b, 0x99, 0xbf, 0x14, 0xcd, 0x86, 0xbf,
    0xd2, 0x66, 0x22, 0xbd, 0xcc, 0x81, 0x73, 0xbf,
    0x20, 0x46, 0xab, 0x3f, 0x65, 0x0d, 0x9d, 0xbf,
    0x95, 0x77, 0x81, 0xbe, 0x18, 0xff, 0x6d, 0xbd,
    0x7c, 0x54, 0x83, 0xbf, 0x11, 0xb1, 0x19, 0xbf,
    0xa4, 0x87, 0x6f, 0xbf, 0x9a, 0x65, 0xda, 0x3e,
    0xf4, 0xd8, 0xbf, 0x3e, 0x82, 0xa5, 0xfe, 0x3d,
    0x4f, 0xdd, 0x1f, 0x3e, 0x2a, 0x7c, 0x7d, 0x3e,
    0xdf, 0xcb, 0x1f, 0x3e, 0xc3, 0x2d, 0xe5, 0x3e,
    0x53, 0xa1, 0x70, 0x3f, 0x6f, 0xac, 0x26, 0x3f,
    0x72, 0x89, 0x10, 0x3d, 0x0c, 0xd7, 0xab, 0x3c,
    0xa7, 0xf8, 0x93, 0x3f, 0x5d, 0xe2, 0xb9, 0x3e,
    0xa3, 0x93, 0x42, 0xbf, 0x85, 0x34, 0x4a, 0x3e,
    0x26, 0x08, 0x21, 0x3e, 0x38, 0xbb, 0x2f, 0x3e,
    0x21, 0xd6, 0xec, 0x3e, 0xef, 0x7f, 0x86, 0x3e,
    0x87, 0x6e, 0x47, 0x3f, 0xc5, 0x3d, 0x4d, 0x3e,
    0x0c, 0xb4, 0x92, 0xbe, 0x4c, 0x32, 0x43, 0x3f,
    0x89, 0x57, 0xa8, 0x3d, 0x5b, 0x78, 0xd7, 0xbd,
    0x44, 0xda, 0xd9, 0xbe, 0xf4, 0xbc, 0xed, 0xbd,
    0x81, 0xf2, 0xcb, 0xbd, 0x55, 0xc0, 0xa9, 0x3e,
    0xce, 0x80, 0xa1, 0x3e, 0x38, 0xca, 0x0d, 0x3f,
    0x46, 0x5e, 0x90, 0xbe, 0xaf, 0x48, 0x66, 0x3e,
    0x05, 0x04, 0x76, 0xbf, 0x16, 0x4d, 0x43, 0xbf,
    0xe2, 0xb9, 0xc9, 0x3e, 0x0e, 0x94, 0xc4, 0x3e,
    0xf6, 0x64, 0x65, 0x3e, 0x8e, 0x71, 0x0a, 0x3d,
    0x73, 0x86, 0xdb, 0x3e, 0x2a, 0x48, 0xb8, 0x3e,
    0x72, 0x10, 0x08, 0xbf, 0xbe, 0x05, 0xcb, 0xbe,
    0xd6, 0x2e, 0x71, 0x3f, 0xa0, 0x14, 0x60, 0x3e,
    0x0b, 0xda, 0x06, 0x3d, 0x37, 0xa5, 0xf6, 0x3e,
    0x70, 0x7c, 0x6d, 0xbf, 0x20, 0x6f, 0x45, 0x3e,
    0xa6, 0x32, 0x6e, 0x3f, 0x9d, 0x1e, 0xe1, 0xbd,
    0x0a, 0x49, 0x88, 0x3e, 0xcd, 0xf3, 0xa5, 0xbf,
    0x1c, 0x2c, 0x04, 0x3e, 0x39, 0xcb, 0xce, 0x3d,
    0xab, 0xf9, 0x04, 0xbf, 0x89, 0x1d, 0x88, 0xbd,
    0xb8, 0x6b, 0x38, 0xbe, 0x56, 0x40, 0x1e, 0x3d,
    0x00, 0x4c, 0x55, 0xbd, 0x37, 0x91, 0xd6, 0x3e,
    0xbb, 0x68, 0x26, 0x3e, 0x54, 0xc8, 0xfe, 0x3e,
    0x1e, 0x85, 0x06, 0xbd, 0x08, 0x10, 0xd8, 0xbd,
    0xd9, 0x98, 0x74, 0x3e, 0x79, 0xda, 0xc3, 0x3d,
    0xd7, 0x6d, 0x28, 0xbc, 0xcb, 0x4f, 0x6e, 0x3f,
    0x21, 0x26, 0x0e, 0x3f, 0x93, 0xbd, 0x12, 0x3f,
    0xb0, 0xad, 0x99, 0x3d, 0xba, 0xb4, 0x0d, 0x3f,
    0x4d, 0xfc, 0xb1, 0x3e, 0x56, 0x51, 0x76, 0xbe,
    0xec, 0xfc, 0x7c, 0xbe, 0x28, 0x61, 0x3a, 0x3f,
    0x4d, 0x9c, 0x7f, 0xbf, 0xd3, 0xb7, 0x20, 0xbf,
    0xd0, 0x54, 0xb4, 0x3e, 0x35, 0x8a, 0xc8, 0x3e,
    0xa5, 0x9e, 0xa8, 0x3d, 0x1c, 0xd5, 0xbc, 0x3e,
    0x73, 0x57, 0x54, 0x3e, 0x54, 0xd9, 0xcd, 0x3e,
    0x46, 0x3c, 0x72, 0x3e, 0xc2, 0x66, 0x50, 0x3f,
    0xf3, 0x23, 0xa0, 0x3c, 0xf3, 0xac, 0x9a, 0x3e,
    0x24, 0x42, 0x48, 0xbf, 0x9a, 0x15, 0x7b, 0x3e,
    0x69, 0xde, 0x21, 0xbe, 0xdf, 0xc0, 0x63, 0x3d,
    0x0a, 0x70, 0xa7, 0x3e, 0xef, 0xd5, 0x48, 0x3f,
    0x3b, 0x18, 0x99, 0xbe, 0xc2, 0xaf, 0x2b, 0xbf,
    0xb2, 0x78, 0x78, 0x3e, 0x88, 0x83, 0x36, 0x3f,
    0x74, 0x1f, 0x7f, 0xbe, 0xb6, 0xf7, 0x1d, 0x3f,
    0x88, 0xd1, 0x8b, 0xbe, 0xff, 0x24, 0x7b, 0xbe,
    0xe6, 0x61, 0xd2, 0xbd, 0x80, 0xa1, 0x16, 0xbf,
    0x1e, 0x7a, 0x0e, 0x3d, 0x85, 0x27, 0x0f, 0xbf,
    0x60, 0x53, 0xa4, 0xbe, 0x53, 0x97, 0xae, 0x3d,
    0xe0, 0x06, 0x24, 0x3f, 0x6d, 0x63, 0xb8, 0x3b,
    0xb6, 0xd1, 0xd8, 0xbe, 0xa5, 0x5e, 0xaf, 0x3d,
    0x82, 0xa8, 0xfb, 0xbe, 0x87, 0xb0, 0xb9, 0xbd,
    0x63, 0x07, 0xf6, 0xbe, 0x16, 0xde, 0x37, 0x3e,
    0x4a, 0x45, 0x1d, 0x3c, 0xcc, 0xf3, 0xdc, 0x3d,
    0x9a, 0xea, 0x7a, 0x3e, 0xdf, 0x9d, 0xa7, 0x3d,
    0x43, 0xdc, 0x35, 0xbe, 0xb6, 0x57, 0x13, 0x3e,
    0x2f, 0x75, 0x07, 0x3e, 0xbc, 0x9e, 0xe9, 0xbe,
    0x89, 0x4e, 0x40, 0x3e, 0x8f, 0xc7, 0x84, 0xbe,
    0xd0, 0x3c, 0x2d, 0x3d, 0x82, 0xfc, 0xab, 0x3e,
    0xa1, 0x08, 0x02, 0xbf, 0x20, 0x4e, 0xba, 0xbe,
    0xef, 0x17, 0xa4, 0xbe, 0x79, 0xa0, 0x08, 0x3f,
    0x22, 0x13, 0xf6, 0xbc, 0xf1, 0xec, 0x39, 0x3e,
    0xa3, 0x0f, 0x8e, 0xbe, 0x57, 0x99, 0x01, 0x3e,
    0x1d, 0xf1, 0x21, 0xbd, 0x63, 0xa4, 0x37, 0xbf,
    0x12, 0x00, 0x38, 0xbe, 0x02, 0x30, 0x07, 0x3e,
    0x59, 0xce, 0xb8, 0xbd, 0x95, 0xe2, 0xa4, 0xbe,
    0x61, 0x5f, 0x5d, 0xbe, 0xd6, 0xbe, 0x8f, 0x3d,
    0x3b, 0x8c, 0x72, 0xbe, 0x4f, 0x3c, 0x43, 0xbd,
    0xcf, 0xad, 0x8e, 0xbe, 0x8b, 0xf5, 0x27, 0xbe,
    0x9b, 0x90, 0x41, 0xbd, 0x75, 0x5c, 0x88, 0x3e,
    0xe3, 0x71, 0xcc, 0xbe, 0xfd, 0xe0, 0x23, 0xbd,
    0x33, 0x97, 0x3e, 0x3d, 0x22, 0xd0, 0x65, 0x3e,
    0x9c, 0xab, 0xc6, 0x3e, 0x59, 0x67, 0x46, 0x3e,
    0x16, 0x39, 0xcf, 0xbe, 0x5d, 0xeb, 0xd3, 0x3e,
    0xd2, 0xce, 0xcb, 0xbe, 0xc3, 0x1c, 0xf5, 0x3c,
    0x3b, 0xc5, 0x40, 0x3e, 0x25, 0x40, 0x3f, 0x3e,
    0xf5, 0x94, 0x84, 0x3e, 0xeb, 0xe9, 0x98, 0xbe,
    0x3b, 0x2f, 0xc8, 0x3d, 0x5a, 0x77, 0x47, 0x3e,
    0x3d, 0xe9, 0x5b, 0xbf, 0x0c, 0xc8, 0x42, 0x3e,
    0x04, 0x16, 0xa1, 0x3e, 0x54, 0xe3, 0xb0, 0xbc,
    0x60, 0x41, 0x90, 0xbf, 0x72, 0x30, 0xf5, 0x3d,
    0x4a, 0x1e, 0xb1, 0x3f, 0x7f, 0xfd, 0x91, 0x3e,
    0x0c, 0xb4, 0x31, 0xbc, 0x34, 0x54, 0xbc, 0x3e,
    0x14, 0x66, 0x99, 0xbf, 0x17, 0xe2, 0x98, 0xbd,
    0x6b, 0xef, 0x8f, 0x3e, 0xaf, 0x84, 0xe7, 0x3b,
    0x62, 0x39, 0x31, 0x3d, 0x8b, 0x8b, 0x1b, 0xbe,
    0x08, 0x09, 0x9f, 0x3d, 0x67, 0xf2, 0x80, 0x3e,
    0xf3, 0xa1, 0x5d, 0x3f, 0x65, 0xb0, 0x91, 0xbe,
    0xbc, 0xa6, 0x8d, 0xbe, 0x2e, 0x6e, 0xd8, 0xbd,
    0xbe, 0x84, 0x15, 0x3e, 0x21, 0xfa, 0x14, 0x3e,
    0x41, 0x47, 0x9d, 0x3e, 0x84, 0x80, 0xa0, 0x3e,
    0x38, 0x93, 0x4d, 0x3e, 0xf5, 0x6c, 0x79, 0xbc,
    0x4c, 0xa9, 0x8d, 0x3e, 0x4a, 0xf4, 0x55, 0xbe,
    0x26, 0xeb, 0xb1, 0x3c, 0x25, 0x6b, 0x7f, 0xbd,
    0xe3, 0xfd, 0x25, 0x3f, 0x1d, 0xcd, 0x01, 0x3e,
    0x81, 0xfc, 0xa6, 0x3d, 0x8b, 0x4c, 0xb5, 0x3e,
    0xe1, 0xda, 0x90, 0x3f, 0xb7, 0xee, 0x08, 0xbe,
    0x30, 0x39, 0xd6, 0xbe, 0xdf, 0x81, 0xd5, 0x3c,
    0x36, 0xbf, 0xd2, 0x3d, 0x74, 0x7b, 0x79, 0xbd,
    0x74, 0x04, 0x48, 0x3f, 0x1e, 0xd0, 0x34, 0xbe,
    0x9a, 0x55, 0x19, 0xbe, 0xc0, 0x6a, 0xfa, 0xbd,
    0x36, 0x24, 0xa5, 0x3e, 0x20, 0x3b, 0x20, 0xbc,
    0x8a, 0xc2, 0x49, 0x3e, 0x79, 0x43, 0x2a, 0xbe,
    0x98, 0xe9, 0x42, 0xbe, 0xf0, 0x33, 0x75, 0x3e,
    0x6b, 0x12, 0x05, 0x3f, 0x52, 0x88, 0xc1, 0x3d,
    0xcb, 0x15, 0xd2, 0x3d, 0xc2, 0x35, 0x3c, 0xbf,
    0xc4, 0x3d, 0x4f, 0x3e, 0x7e, 0x88, 0x84, 0xbe,
    0x47, 0xca, 0x77, 0x3e, 0x3d, 0x19, 0xa2, 0x3e,
    0x0a, 0x58, 0x4e, 0xbd, 0x40, 0xfc, 0x2c, 0x3f,
    0xff, 0x94, 0xb6, 0x3d, 0x77, 0x78, 0x63, 0x3e,
    0xf8, 0x3c, 0x96, 0x3f, 0x8c, 0xbf, 0x22, 0x3e,
    0x8c, 0xa1, 0xdb, 0x3d, 0x66, 0x52, 0x33, 0xbe,
    0xf3, 0x83, 0xa1, 0x3f, 0x1b, 0xb0, 0xb8, 0x3e,
    0x3a, 0x13, 0x1a, 0x3f, 0x7c, 0x9f, 0x65, 0xbe,
    0xba, 0xa0, 0x71, 0xbe, 0x2d, 0x56, 0xd8, 0x3b,
    0x4e, 0x48, 0x94, 0x3f, 0xcb, 0x4c, 0xd2, 0x3d,
    0xf3, 0xea, 0xdc, 0x3e, 0xec, 0x4b, 0x1a, 0xbe,
    0x57, 0xe5, 0x26, 0xbe, 0x39, 0x54, 0xf2, 0xbd,
    0x41, 0xbe, 0x0e, 0xbf, 0x47, 0x90, 0x97, 0x3d,
    0x78, 0xb5, 0x14, 0x3f, 0xc6, 0x3b, 0x1f, 0xbf,
    0xe4, 0x67, 0xc6, 0xbe, 0x75, 0x8a, 0x27, 0x3d,
    0x10, 0x5d, 0xf2, 0x3d, 0x7e, 0x7c, 0x1e, 0x3e,
    0x07, 0x5a, 0xe7, 0xbe, 0xef, 0xf2, 0xe1, 0x3e,
    0x31, 0xc7, 0x19, 0x3e, 0x2c, 0x3a, 0xea, 0xba,
    0xde, 0xd5, 0x94, 0xbb, 0xa4, 0x7e, 0xb7, 0xbe,
    0xdf, 0x5b, 0x8e, 0x3e, 0xd5, 0x35, 0xc0, 0x3d,
    0x75, 0x0e, 0x5e, 0xbe, 0x3e, 0x92, 0x03, 0x3e,
    0x82, 0xe8, 0x9d, 0x3e, 0xd7, 0xa9, 0x25, 0xbf,
    0xac, 0x7a, 0x51, 0xbf, 0xfb, 0x6d, 0xd2, 0xbe,
    0x67, 0x80, 0x82, 0xbe, 0xf9, 0xe3, 0xe0, 0x3d,
    0xdc, 0xca, 0xe5, 0xbe, 0x02, 0xef, 0xbc, 0x3e,
    0x57, 0x25, 0x07, 0xbf, 0x8b, 0xd3, 0x74, 0x3e,
    0x9d, 0x47, 0xbf, 0x3e, 0xee, 0xeb, 0xa6, 0xbd,
    0xa8, 0x9d, 0x59, 0x3e, 0x00, 0x75, 0x84, 0x3d,
    0xcb, 0xf1, 0xc3, 0x3e, 0xb0, 0x70, 0xd0, 0x3e,
    0xa4, 0x17, 0xc2, 0xbe, 0x34, 0xd8, 0x76, 0x3e,
    0x6d, 0x09, 0x1c, 0x3e, 0xd2, 0x92, 0x82, 0x3e,
    0xe1, 0x29, 0x88, 0x3e, 0x56, 0x5e, 0x0e, 0xbf,
    0x15, 0x97, 0xb9, 0x3d, 0xc6, 0xf5, 0xff, 0xff,
    0x04, 0x00, 0x00, 0x00, 0x80, 0x01, 0x00, 0x00,
    0x83, 0x6b, 0x2d, 0x3f, 0x4d, 0xc2, 0x19, 0xbf,
    0x2e, 0x21, 0x12, 0x3e, 0x23, 0xbd, 0x23, 0xbf,
    0x12, 0xef, 0x02, 0xb9, 0xd8, 0x89, 0xec, 0xbe,
    0x9f, 0xe9, 0x95, 0xbf, 0x2f, 0xe6, 0xa1, 0x3e,
    0x9b, 0xf1, 0xf4, 0x3e, 0x11, 0x15, 0xda, 0x3e,
    0x45, 0xa4, 0xeb, 0x3e, 0x68, 0x0c, 0x14, 0x3f,
    0x16, 0x96, 0xa8, 0x3d, 0xaf, 0x9b, 0x19, 0xbf,
    0xcb, 0x24, 0x80, 0x3e, 0x15, 0xc7, 0x78, 0x3d,
    0x73, 0xec, 0xb8, 0xbe, 0x8d, 0x91, 0xbf, 0x3e,
    0xdd, 0xd5, 0x8f, 0x3b, 0x24, 0xe6, 0xc9, 0xbd,
    0x81, 0x44, 0xf2, 0xbe, 0xfd, 0x75, 0x0c, 0x3f,
    0x8b, 0x81, 0xf1, 0xbe, 0xef, 0xca, 0x5b, 0x3e,
    0xd4, 0xda, 0x07, 0xbf, 0x3d, 0xfc, 0xa8, 0x3e,
    0x2b, 0xcc, 0x05, 0xbf, 0xb4, 0xa8, 0x22, 0x3e,
    0x88, 0xca, 0x33, 0x3e, 0x2c, 0x4e, 0x29, 0xbe,
    0x47, 0x0d, 0x50, 0xbd, 0x85, 0x60, 0x0a, 0xbf,
    0x07, 0x93, 0xb2, 0xbe, 0x00, 0xc7, 0xa9, 0xbe,
    0xe1, 0x6a, 0x0b, 0xbe, 0xb1, 0x49, 0xcd, 0x3e,
    0xb0, 0xf6, 0xc6, 0x3e, 0x3a, 0x0e, 0x02, 0x3c,
    0xcc, 0x0a, 0x7c, 0xbf, 0x9b, 0xb9, 0x05, 0xbe,
    0xa6, 0xd5, 0xc4, 0xbe, 0x6d, 0x49, 0xde, 0x3e,
    0x97, 0x21, 0x18, 0x3f, 0xab, 0x90, 0x3e, 0xbf,
    0xa0, 0x39, 0x18, 0x3d, 0xe5, 0x59, 0xa3, 0x3b,
    0xfb, 0xcc, 0x23, 0xbf, 0xc3, 0x0d, 0x2a, 0xbe,
    0x89, 0x25, 0xf5, 0x3e, 0xdc, 0xcb, 0x38, 0x3e,
    0x21, 0xc0, 0xcf, 0x3e, 0x67, 0x57, 0x36, 0x3f,
    0xde, 0xb9, 0xf8, 0xbe, 0x4d, 0xb0, 0x53, 0xbf,
    0x95, 0x9d, 0x58, 0xbf, 0xca, 0x03, 0x04, 0x3f,
    0x23, 0x45, 0x64, 0x3f, 0x24, 0x1f, 0x18, 0x3e,
    0x8c, 0xbf, 0x64, 0xbf, 0x47, 0xc6, 0xac, 0xbd,
    0xe9, 0x74, 0x2a, 0xbf, 0xf4, 0x7c, 0x4a, 0x3f,
    0x90, 0x71, 0x26, 0x3f, 0x12, 0x97, 0x25, 0xbf,
    0x64, 0xde, 0xa3, 0x3f, 0x19, 0xc6, 0x83, 0xbf,
    0xcb, 0x57, 0x6c, 0xbe, 0xa6, 0x80, 0x4d, 0x3e,
    0xec, 0x0a, 0x47, 0xbf, 0xa4, 0xad, 0xff, 0x3e,
    0x32, 0xe4, 0xc9, 0x3f, 0x58, 0x6e, 0xb0, 0xbf,
    0xba, 0x59, 0x03, 0xbf, 0x62, 0x1a, 0xa4, 0xbf,
    0xec, 0x89, 0x82, 0x3e, 0x6e, 0x2d, 0x52, 0xbe,
    0xb5, 0x77, 0x24, 0x3f, 0x13, 0xf1, 0xfa, 0xbe,
    0x0d, 0xf5, 0x08, 0x3f, 0x61, 0x93, 0xa1, 0xbc,
    0x21, 0x89, 0xf1, 0xbe, 0x90, 0xbf, 0xfb, 0x3c,
    0xec, 0x46, 0x0d, 0x3f, 0xb9, 0xaf, 0x6d, 0xbe,
    0x3e, 0xa9, 0xf6, 0x3d, 0x47, 0xa1, 0xac, 0xbe,
    0xbd, 0xdc, 0x3d, 0x3f, 0x9c, 0x3d, 0xd0, 0x3e,
    0xe8, 0xab, 0x87, 0xbe, 0xea, 0x6d, 0x71, 0x3d,
    0xc6, 0x83, 0x11, 0xbf, 0x7d, 0x0e, 0x1c, 0x3d,
    0x9d, 0x4d, 0x45, 0x3e, 0x15, 0x9c, 0x89, 0x3e,
    0xf8, 0x56, 0x56, 0xbf, 0xe7, 0xd3, 0x49, 0x3f,
    0x52, 0xf7, 0xff, 0xff, 0x04, 0x00, 0x00, 0x00,
    0x18, 0x00, 0x00, 0x00, 0xeb, 0x3a, 0xbe, 0xbd,
    0x9d, 0xd1, 0xe9, 0x3d, 0xc9, 0xd8, 0x92, 0x3e,
    0x3c, 0x08, 0xb9, 0xbe, 0x17, 0xb7, 0x13, 0x3e,
    0x72, 0xbb, 0xa6, 0xbe, 0x76, 0xf7, 0xff, 0xff,
    0x04, 0x00, 0x00, 0x00, 0x80, 0x00, 0x00, 0x00,
    0x0a, 0xb4, 0x35, 0xbf, 0x19, 0x45, 0x10, 0x3f,
    0x31, 0x97, 0xa1, 0x3e, 0x7e, 0xfd, 0xa7, 0xbd,
    0x9a, 0x11, 0x0b, 0x3e, 0xce, 0x58, 0xc0, 0xba,
    0xc7, 0x62, 0x1d, 0x3d, 0x95, 0xc7, 0x43, 0xbe,
    0x33, 0xcc, 0x1f, 0x3e, 0x15, 0x29, 0x52, 0xbe,
    0x99, 0xd5, 0xa0, 0x3e, 0xc8, 0x67, 0x8a, 0xbd,
    0xc3, 0x05, 0xca, 0x3e, 0x12, 0x57, 0x20, 0x3e,
    0x82, 0xad, 0xf1, 0xbd, 0x85, 0x64, 0x21, 0x3e,
    0x2c, 0x26, 0x2a, 0xbd, 0xa4, 0x37, 0x2c, 0xbe,
    0x77, 0xfc, 0x6f, 0xbd, 0x92, 0xf6, 0xa0, 0xbe,
    0x40, 0x6f, 0x21, 0x3f, 0x83, 0xce, 0xc2, 0xbd,
    0x0b, 0x2d, 0xb0, 0x3d, 0x15, 0x7b, 0x1e, 0x3e,
    0x05, 0x27, 0xde, 0xbd, 0x67, 0x93, 0x48, 0x3e,
    0x29, 0xb3, 0x60, 0x3d, 0x04, 0x95, 0x88, 0xbd,
    0x98, 0xde, 0xe2, 0xbd, 0xca, 0x85, 0xe2, 0xbc,
    0x64, 0x82, 0x90, 0x3d, 0x84, 0xd0, 0x5a, 0xbe,
    0x02, 0xf8, 0xff, 0xff, 0x04, 0x00, 0x00, 0x00,
    0x40, 0x00, 0x00, 0x00, 0x39, 0x88, 0x7a, 0x3f,
    0xe9, 0x53, 0xb4, 0x3e, 0xf2, 0x19, 0xdb, 0xbe,
    0x53, 0xd0, 0x89, 0x3d, 0xd9, 0xd1, 0x89, 0x3e,
    0x23, 0x3d, 0xe3, 0x3e, 0x84, 0xdd, 0x29, 0x3f,
    0x33, 0x8a, 0xfc, 0x3d, 0x19, 0x35, 0x08, 0xbf,
    0xba, 0x11, 0x9a, 0x3e, 0x58, 0x39, 0x00, 0x3f,
    0xe9, 0x2c, 0x5c, 0xbd, 0x7f, 0x94, 0xb3, 0x3e,
    0xb6, 0xbe, 0x3b, 0x3e, 0xae, 0x08, 0x67, 0x3d,
    0xc8, 0xe6, 0xa4, 0xbd, 0x4e, 0xf8, 0xff, 0xff,
    0x04, 0x00, 0x00, 0x00, 0x00, 0x06, 0x00, 0x00,
    0xfe, 0xab, 0x89, 0xbe, 0xee, 0xa4, 0x86, 0xbc,
    0xa3, 0xcf, 0xa8, 0xbe, 0xee, 0x87, 0xc7, 0x3d,
    0x17, 0x51, 0x8a, 0xbe, 0xb8, 0x09, 0x8b, 0xbe,
    0x25, 0x42, 0x65, 0x3d, 0xee, 0x8a, 0x0a, 0x3d,
    0xf9, 0x8f, 0xab, 0x3e, 0x19, 0x21, 0x39, 0xbe,
    0x95, 0x3a, 0xad, 0xbe, 0x0a, 0xa4, 0x9b, 0xbd,
    0x5c, 0xbd, 0xa0, 0xbe, 0xd7, 0x0c, 0xe8, 0x3d,
    0x54, 0xfd, 0xa7, 0xbe, 0x08, 0x28, 0x60, 0x3c,
    0xcf, 0xb5, 0x72, 0x3e, 0x3f, 0x96, 0x65, 0xbe,
    0x96, 0x48, 0x08, 0xbf, 0x13, 0xa9, 0x20, 0xbb,
    0x67, 0x73, 0x55, 0x3e, 0xe2, 0xd5, 0x9b, 0xbd,
    0xbf, 0xec, 0x41, 0x3d, 0x0f, 0xb9, 0xdd, 0xbc,
    0xa8, 0xa8, 0x79, 0x3d, 0x61, 0x2e, 0x92, 0xbd,
    0xb5, 0xcd, 0x98, 0x3e, 0x9d, 0x32, 0xda, 0xbe,
    0xeb, 0xcd, 0xe4, 0xbd, 0x16, 0x6e, 0x21, 0xbc,
    0x03, 0xc0, 0xa0, 0x3e, 0x1f, 0x56, 0xef, 0xbc,
    0xe6, 0x9c, 0xf0, 0xbb, 0x31, 0x90, 0xd1, 0xbe,
    0x4a, 0x90, 0x05, 0xbd, 0xf2, 0x7d, 0x71, 0x3e,
    0x34, 0x6d, 0x07, 0xbf, 0x04, 0x1e, 0xf1, 0xbb,
    0xbf, 0x84, 0x66, 0x3e, 0xaf, 0xf0, 0x11, 0xbe,
    0xfc, 0x4c, 0x85, 0xbd, 0x4c, 0x66, 0x87, 0x3d,
    0x16, 0xb0, 0x32, 0x3f, 0x6a, 0x76, 0xaa, 0x3e,
    0x60, 0x74, 0xcb, 0x3e, 0xb7, 0xd1, 0xd9, 0x3d,
    0xbb, 0x7c, 0x67, 0xbd, 0xf6, 0x55, 0x26, 0x3e,
    0xa4, 0x5e, 0x16, 0xbe, 0x4e, 0x71, 0xe7, 0xbc,
    0xf0, 0x94, 0xbf, 0xbe, 0x68, 0x73, 0x2d, 0xbe,
    0xaa, 0x7b, 0xaf, 0xbc, 0x5c, 0xbb, 0xcc, 0xbe,
    0x5e, 0x6f, 0xee, 0x3d, 0xa7, 0x10, 0x61, 0xbe,
    0x20, 0x18, 0xa5, 0xbd, 0x9a, 0xec, 0x3c, 0xbe,
    0x72, 0x90, 0xce, 0xbe, 0x17, 0x46, 0xd1, 0xbe,
    0xb7, 0xd9, 0x65, 0xbe, 0xe3, 0xbf, 0x1a, 0xbf,
    0x0d, 0x5a, 0x26, 0xbe, 0xf2, 0x2a, 0xb3, 0xbc,
    0xfe, 0xcb, 0x23, 0xbe, 0x48, 0x26, 0x56, 0xbd,
    0x46, 0x09, 0x93, 0x3d, 0x7a, 0xd8, 0x27, 0x3f,
    0x3a, 0x89, 0xe6, 0x3c, 0x61, 0x22, 0x4b, 0x3d,
    0x8c, 0xe0, 0x65, 0x3a, 0x2a, 0x0a, 0x89, 0xbb,
    0x1c, 0xd1, 0x16, 0xbf, 0xa3, 0xd8, 0x1d, 0xbb,
    0xab, 0x29, 0x91, 0x3e, 0x16, 0x52, 0x0e, 0xbd,
    0x84, 0x72, 0x8d, 0x3d, 0xd0, 0x60, 0x5f, 0xbd,
    0x49, 0x3d, 0xc6, 0x3e, 0xce, 0x2e, 0x9e, 0xbd,
    0x47, 0x0b, 0xd5, 0xbd, 0xee, 0xe4, 0xfc, 0xbe,
    0x26, 0xcf, 0xc7, 0xbd, 0x34, 0xaf, 0xdf, 0x3d,
    0x8e, 0x85, 0xa0, 0xbb, 0xa2, 0x55, 0xf3, 0xbb,
    0x40, 0x35, 0x9b, 0x3c, 0xea, 0x49, 0x64, 0xbd,
    0xb2, 0x80, 0x80, 0x3e, 0xda, 0xb9, 0x07, 0x3f,
    0xaa, 0x69, 0x6f, 0xbd, 0x86, 0xca, 0x22, 0xbc,
    0xb4, 0xa7, 0x8c, 0xbe, 0xfb, 0x9e, 0x9c, 0xbd,
    0x81, 0xc3, 0x01, 0xbe, 0xc2, 0x5d, 0x14, 0xbf,
    0xeb, 0xf1, 0x3d, 0xbb, 0x91, 0xd6, 0x31, 0x3d,
    0x5c, 0x2b, 0x23, 0xbe, 0xa7, 0x23, 0xb8, 0x3e,
    0xde, 0x00, 0xb0, 0xbd, 0x87, 0x7b, 0xf5, 0xbe,
    0xa9, 0x7c, 0xf4, 0x3e, 0x80, 0x52, 0xa7, 0xbd,
    0xfa, 0x05, 0x0a, 0x3e, 0xd5, 0x4c, 0x10, 0xbe,
    0xf2, 0xaa, 0x0a, 0xbe, 0x11, 0xa6, 0xa2, 0x3d,
    0x8b, 0x79, 0xa8, 0x3d, 0x4b, 0x44, 0x07, 0xbf,
    0xdf, 0x3a, 0x4f, 0xbe, 0x75, 0x90, 0x8f, 0x3e,
    0xc5, 0x8a, 0x4f, 0xbe, 0xef, 0xfd, 0x71, 0x3e,
    0x85, 0x73, 0x2a, 0xbd, 0xc6, 0x3d, 0xed, 0xbd,
    0xd0, 0xad, 0xd3, 0x3e, 0xd3, 0xcc, 0x94, 0x3e,
    0x82, 0x9b, 0x4f, 0xbe, 0x36, 0x8c, 0xad, 0x3e,
    0xde, 0x57, 0x80, 0xbd, 0x71, 0x2b, 0x7e, 0xbe,
    0xa5, 0x2d, 0x83, 0x3e, 0x75, 0x70, 0x07, 0x3e,
    0x01, 0xec, 0xfc, 0xbd, 0xac, 0x42, 0xcc, 0x3e,
    0x06, 0x53, 0x8d, 0x3e, 0x1b, 0xe2, 0xca, 0xbb,
    0xd4, 0xfa, 0x2f, 0xbe, 0x9c, 0xc3, 0x50, 0x3e,
    0xad, 0xb2, 0xd6, 0x3e, 0x03, 0x36, 0x06, 0x3a,
    0x2d, 0x1f, 0xf9, 0x3c, 0xe5, 0x05, 0x89, 0x3e,
    0x62, 0xc3, 0xa7, 0x3c, 0x73, 0x9a, 0x18, 0x3d,
    0x56, 0x0f, 0x43, 0x3e, 0xa9, 0xac, 0xbd, 0xbe,
    0x09, 0xee, 0xe4, 0x3e, 0x82, 0xa7, 0x07, 0xbc,
    0xf1, 0xdd, 0xa1, 0xbe, 0x05, 0x12, 0xf1, 0x3d,
    0x55, 0x5f, 0xb6, 0x3c, 0x8d, 0x67, 0x83, 0xbb,
    0x34, 0x88, 0x4c, 0x3e, 0x80, 0x7e, 0xbf, 0xbe,
    0xc8, 0x26, 0x27, 0xbe, 0x72, 0xb2, 0xf9, 0x3e,
    0xa7, 0x0a, 0xa4, 0x3d, 0xa0, 0x50, 0x8e, 0xbb,
    0xf7, 0x1e, 0x2c, 0x3e, 0xbd, 0x4c, 0x6f, 0x3e,
    0xd0, 0x5b, 0x14, 0x3e, 0x6c, 0xf2, 0x23, 0x3e,
    0x92, 0xa8, 0x20, 0xbf, 0x9b, 0x94, 0xa1, 0x3c,
    0x12, 0xe3, 0x4d, 0x3e, 0x3f, 0x88, 0x65, 0x3e,
    0x2f, 0x9d, 0xdb, 0x3e, 0xb4, 0x2a, 0x36, 0xbe,
    0x40, 0xe6, 0x1d, 0xbe, 0x77, 0x12, 0x05, 0xbe,
    0x55, 0x80, 0x8f, 0x3d, 0x4f, 0x9f, 0x37, 0xbe,
    0x79, 0xf0, 0x78, 0xbd, 0x26, 0x34, 0xf9, 0x3d,
    0x3f, 0x10, 0x1f, 0x3f, 0x37, 0x69, 0xc4, 0xbd,
    0x1d, 0xb8, 0xe7, 0x3e, 0x5e, 0x12, 0xbf, 0xbe,
    0xaf, 0x00, 0xdc, 0x3c, 0xde, 0xa2, 0x9b, 0xbd,
    0xd2, 0xb1, 0x18, 0x3d, 0xf2, 0xac, 0xcc, 0x3c,
    0x5a, 0xd6, 0x73, 0xbd, 0x7d, 0x17, 0x90, 0xbe,
    0xf2, 0xcb, 0x35, 0x3c, 0x07, 0x5b, 0xa2, 0xbe,
    0x84, 0x46, 0x62, 0x3e, 0xcf, 0xaf, 0xbc, 0x3e,
    0x32, 0x38, 0xd8, 0x3d, 0x97, 0x84, 0xaf, 0x3d,
    0xf9, 0x78, 0x5a, 0xbe, 0x78, 0xfb, 0x8b, 0xbe,
    0xa0, 0x86, 0x55, 0x3e, 0x81, 0x60, 0x8b, 0xbe,
    0x7c, 0xc5, 0xa0, 0xbe, 0x1c, 0xbb, 0x41, 0xbc,
    0xcd, 0x72, 0x89, 0xbe, 0x26, 0xc7, 0xe7, 0x3d,
    0xd6, 0x19, 0x22, 0xbe, 0xce, 0xe0, 0x63, 0x3e,
    0xf4, 0x98, 0xd7, 0xbc, 0x49, 0x42, 0x22, 0x3f,
    0x72, 0x1f, 0x6e, 0xbd, 0x1a, 0x69, 0xd5, 0x3a,
    0xd7, 0x0a, 0x0e, 0xbc, 0x5f, 0x2a, 0x74, 0x3d,
    0xd6, 0xa3, 0xc7, 0x3c, 0xaf, 0x53, 0x7b, 0x3e,
    0xb9, 0xed, 0xb5, 0x3c, 0xd8, 0xed, 0xa9, 0x3d,
    0x32, 0xe3, 0x0e, 0xbf, 0x0f, 0xf9, 0x45, 0xbd,
    0xe2, 0x75, 0x78, 0xbd, 0x27, 0xec, 0x3d, 0x3d,
    0x67, 0x3d, 0x38, 0xbc, 0x2a, 0x3b, 0x08, 0xbe,
    0xcc, 0x18, 0xcc, 0x3e, 0x38, 0xf6, 0xc4, 0x3e,
    0xc2, 0xf0, 0x16, 0x3e, 0x1a, 0xb5, 0x40, 0x3f,
    0xa8, 0x6b, 0xf7, 0x3d, 0xf0, 0xb4, 0xf4, 0x3d,
    0xc9, 0x5c, 0x44, 0x3c, 0xea, 0xd3, 0xeb, 0xbc,
    0xca, 0xfc, 0xf8, 0x3e, 0x89, 0xb0, 0x90, 0xbd,
    0x2e, 0xd8, 0x32, 0xbe, 0x83, 0xa1, 0xa2, 0x3e,
    0x41, 0x5f, 0xf3, 0x3d, 0x0f, 0xe6, 0xde, 0xbd,
    0xae, 0x1d, 0x1a, 0x3f, 0xdc, 0xdc, 0x1e, 0xbe,
    0x88, 0x5e, 0x94, 0x3d, 0xb0, 0x1c, 0xd2, 0xbc,
    0xa3, 0x44, 0x85, 0x3e, 0x18, 0xd9, 0x82, 0x3e,
    0x1c, 0xac, 0x65, 0x3e, 0xd0, 0x02, 0x4c, 0x3e,
    0x72, 0x93, 0x92, 0x3d, 0x37, 0x1f, 0x44, 0xbe,
    0xbd, 0xba, 0x05, 0x3f, 0x5b, 0xea, 0xb3, 0x3d,
    0x76, 0x90, 0x28, 0xbf, 0x9e, 0xe1, 0x79, 0xbd,
    0xa1, 0xc7, 0xa4, 0xbe, 0xfd, 0x1e, 0x51, 0x3d,
    0x37, 0x3c, 0x2c, 0x3e, 0x2d, 0xab, 0x00, 0x3c,
    0xdf, 0xf9, 0x1e, 0x3f, 0x9b, 0x20, 0x4e, 0x3e,
    0xea, 0xd0, 0xfc, 0xbd, 0x87, 0xa6, 0x22, 0xbe,
    0x21, 0x20, 0x28, 0xbd, 0x51, 0x9f, 0x35, 0xbd,
    0x1a, 0xa7, 0x4b, 0x3c, 0x79, 0xa8, 0xd4, 0xbb,
    0x4a, 0x5f, 0x9d, 0xbb, 0x8e, 0x2c, 0xc5, 0xbe,
    0x41, 0xa2, 0xda, 0xbd, 0xd1, 0xef, 0x11, 0x3f,
    0x75, 0x66, 0x9f, 0xbd, 0x7b, 0x72, 0xe8, 0xbd,
    0x8f, 0x26, 0xe1, 0x3e, 0x96, 0xc9, 0x45, 0x3e,
    0x7e, 0xff, 0xe6, 0xbd, 0x73, 0xb6, 0xbb, 0x3e,
    0x15, 0x77, 0x1a, 0x3c, 0xdb, 0xdc, 0xaa, 0xbc,
    0xfc, 0x79, 0x9c, 0x3b, 0xff, 0x2b, 0xa6, 0x3e,
    0x8f, 0x80, 0x02, 0xbf, 0x57, 0x03, 0xb3, 0x3e,
    0x3e, 0x6b, 0xfb, 0x3c, 0x81, 0x7b, 0xe9, 0xbe,
    0xff, 0x59, 0x19, 0xbe, 0x17, 0xad, 0x49, 0x3c,
    0x70, 0x0d, 0xcf, 0xbe, 0x6b, 0xdd, 0x33, 0x3e,
    0x3f, 0x87, 0x9d, 0x3a, 0x60, 0x33, 0x8f, 0x3c,
    0x18, 0xbf, 0xee, 0xbe, 0x0a, 0xf8, 0xb6, 0xbe,
    0xaa, 0x73, 0x5e, 0x3d, 0x58, 0x38, 0x87, 0x3e,
    0xfa, 0xce, 0x82, 0x3e, 0x18, 0x51, 0x29, 0x3e,
    0x60, 0x11, 0xc1, 0xbe, 0x8d, 0x14, 0x18, 0xbe,
    0xc9, 0x6c, 0x2c, 0x3e, 0xf4, 0xe6, 0x03, 0x3e,
    0x2d, 0x11, 0x37, 0x3e, 0x2a, 0xd0, 0xa3, 0x3e,
    0xa8, 0xf1, 0x20, 0x3e, 0x37, 0xad, 0x0b, 0xbe,
    0xa4, 0xba, 0xb2, 0x3e, 0xcd, 0x7e, 0x70, 0x3e,
    0x92, 0x3f, 0xc2, 0x3e, 0x0f, 0x1f, 0x80, 0xbb,
    0xc3, 0xaa, 0x6a, 0xbe, 0xa1, 0x85, 0x0d, 0x3c,
    0xac, 0x6b, 0xd2, 0x3c, 0x5a, 0x7f, 0x71, 0x3d,
    0xa3, 0x56, 0xe0, 0x3e, 0x54, 0x9f, 0x80, 0x3d,
    0xbc, 0xc6, 0xa2, 0xbe, 0x31, 0x0c, 0x24, 0x3d,
    0xf8, 0xe4, 0x0e, 0xbc, 0xac, 0xa7, 0x0b, 0x3d,
    0xf9, 0x40, 0x2b, 0xbd, 0x83, 0xe1, 0x01, 0xbb,
    0xa0, 0xa9, 0xbe, 0xbc, 0xec, 0xe5, 0xf4, 0xbe,
    0x0b, 0x7b, 0x85, 0x3e, 0xa9, 0x3c, 0xd2, 0x3e,
    0x2a, 0x26, 0xbd, 0x3e, 0x41, 0x91, 0x1e, 0x3f,
    0x76, 0x72, 0x9e, 0x3d, 0x0c, 0xb8, 0x71, 0x3d,
    0x87, 0x29, 0x09, 0x3e, 0x51, 0x72, 0x2e, 0xbe,
    0x11, 0xe6, 0x1f, 0x3f, 0x07, 0xc7, 0x84, 0x3e,
    0x6c, 0xa5, 0x2a, 0x3e, 0xa1, 0x4f, 0x6f, 0x3e,
    0x38, 0xbf, 0x42, 0xbd, 0x95, 0x38, 0x17, 0xbe,
    0xd4, 0x70, 0x91, 0x3e, 0x6e, 0x62, 0xf8, 0x3e,
    0x43, 0x9b, 0x37, 0x3e, 0xf4, 0x0a, 0xfe, 0xbd,
    0x06, 0x83, 0x04, 0x3e, 0xae, 0x61, 0x8d, 0x3e,
    0xa6, 0x4f, 0x11, 0xbf, 0x9b, 0x57, 0xed, 0xbd,
    0xe0, 0xb9, 0xb0, 0xbe, 0x36, 0xf6, 0xf1, 0x3c,
    0xea, 0x68, 0xcd, 0x3a, 0x84, 0x57, 0x67, 0xbc,
    0xfb, 0xda, 0xc0, 0xbe, 0xb2, 0x66, 0x8b, 0x3e,
    0xf5, 0x08, 0x14, 0x3e, 0x76, 0xd9, 0x07, 0x3e,
    0x93, 0x79, 0xc5, 0xbd, 0xc6, 0xa5, 0x55, 0xbe,
    0xe2, 0x2d, 0x2f, 0x3e, 0xdb, 0xc8, 0x58, 0x3e,
    0x3e, 0x32, 0xc0, 0xbe, 0x03, 0x63, 0xf7, 0xbd,
    0x19, 0x58, 0x31, 0xbe, 0xa1, 0x76, 0x4f, 0x3e,
    0x88, 0xfe, 0x21, 0x3f, 0x4f, 0x06, 0x1c, 0xbe,
    0x97, 0xa7, 0x83, 0x3e, 0x31, 0x77, 0xd7, 0xbd,
    0x6c, 0x63, 0x88, 0x3e, 0x31, 0xf9, 0x51, 0x3e,
    0xae, 0x07, 0x3c, 0xbe, 0xaa, 0xb4, 0x79, 0xbd,
    0x7e, 0xba, 0xe6, 0x3e, 0xf5, 0xf0, 0xbe, 0x3b,
    0x92, 0x72, 0x09, 0xbe, 0x14, 0xee, 0x92, 0xbd,
    0x5a, 0x28, 0x12, 0x3f, 0xf5, 0x7b, 0x06, 0xbe,
    0x67, 0x93, 0xbf, 0x3e, 0x92, 0x20, 0xca, 0x3c,
    0x99, 0x93, 0x77, 0x3b, 0x2c, 0xc1, 0x54, 0xbd,
    0xbf, 0x6e, 0xa7, 0xbe, 0xd0, 0x4c, 0xf8, 0xbc,
    0x43, 0x72, 0x8f, 0x3e, 0x14, 0xc7, 0xcc, 0x3e,
    0x2c, 0x13, 0x3e, 0xbc, 0xf6, 0xb7, 0x46, 0xbe,
    0x52, 0x33, 0xfb, 0x3e, 0x7e, 0x3b, 0xe2, 0xbe,
    0xdf, 0x9b, 0x93, 0x3d, 0x69, 0x3a, 0xa8, 0xbb,
    0x2f, 0xa0, 0xa7, 0xb9, 0x07, 0x29, 0xbe, 0x3c,
    0xb9, 0x24, 0xc0, 0x3b, 0xf6, 0xed, 0x02, 0xbf,
    0xa5, 0xee, 0x1d, 0xbe, 0xeb, 0x24, 0xb1, 0xbe,
    0x11, 0xc6, 0x2e, 0x3e, 0x3f, 0x2e, 0x54, 0xbd,
    0xfb, 0x41, 0x26, 0x3f, 0x94, 0x91, 0xa1, 0xbe,
    0xf5, 0x2b, 0x36, 0x3e, 0x52, 0xf5, 0x0c, 0x3d,
    0x3e, 0xb0, 0x4c, 0x3d, 0x22, 0x8e, 0xc3, 0xbc,
    0x5a, 0xfe, 0xff, 0xff, 0x04, 0x00, 0x00, 0x00,
    0x00, 0x01, 0x00, 0x00, 0x5d, 0x61, 0x80, 0xbe,
    0xb6, 0xcb, 0x36, 0xbe, 0x08, 0x7e, 0x71, 0xbe,
    0xd5, 0x8b, 0x63, 0xbe, 0x59, 0x1d, 0xa2, 0xbe,
    0x1a, 0x56, 0x3f, 0x3d, 0x76, 0xe2, 0x6e, 0xbe,
    0xaa, 0x92, 0x8e, 0xbe, 0x32, 0x7d, 0x94, 0xbe,
    0x2d, 0x86, 0xa9, 0xbe, 0x10, 0xa8, 0x27, 0x3d,
    0x4d, 0xfd, 0xa8, 0xbd, 0x8d, 0xc0, 0x77, 0xbe,
    0xeb, 0x7d, 0xd2, 0x3b, 0xa8, 0xdf, 0xc5, 0xbc,
    0xcb, 0x05, 0x61, 0xbe, 0x0e, 0xa4, 0x17, 0xbe,
    0x4d, 0xa2, 0x2b, 0x3d, 0xf4, 0x18, 0xf6, 0xbe,
    0x4d, 0x03, 0x04, 0xbe, 0x24, 0x80, 0xd1, 0xbe,
    0x0f, 0x29, 0x35, 0x3b, 0x5a, 0x6b, 0x10, 0xbd,
    0x55, 0x5e, 0xc3, 0x3d, 0xa7, 0x59, 0x05, 0xbf,
    0x0e, 0xfd, 0x9b, 0xbe, 0x6d, 0xd4, 0xeb, 0xbe,
    0xff, 0x6e, 0x71, 0xbe, 0x14, 0x35, 0xb0, 0xbe,
    0xbf, 0x3f, 0x49, 0xbe, 0xb3, 0x7d, 0x04, 0xbe,
    0xf5, 0x89, 0xe9, 0xbd, 0x61, 0xc5, 0xa0, 0xbd,
    0xb6, 0x0a, 0x84, 0xbe, 0x6e, 0xe1, 0xb8, 0xbd,
    0x7e, 0xa6, 0x5b, 0xbe, 0xf4, 0x0b, 0x6b, 0x3d,
    0xf1, 0x42, 0x33, 0xbe, 0xa8, 0xdd, 0xa8, 0xbe,
    0xc2, 0x34, 0xcc, 0xbe, 0xab, 0xb5, 0x03, 0xbe,
    0xe5, 0x01, 0x4f, 0xbd, 0xdc, 0xec, 0x12, 0xbe,
    0x1b, 0x7d, 0xb4, 0xbd, 0x98, 0xaf, 0xb8, 0xbe,
    0xa1, 0xbf, 0x8d, 0xbe, 0xc5, 0xd5, 0x32, 0xbd,
    0xbf, 0x6d, 0x60, 0xbe, 0x4c, 0x65, 0xa0, 0x3d,
    0x0c, 0xe7, 0xb2, 0x3c, 0xea, 0x06, 0x71, 0xbd,
    0x88, 0x66, 0xca, 0xbe, 0xaf, 0x47, 0x79, 0xbe,
    0x53, 0x83, 0xb9, 0xbe, 0x63, 0xb8, 0x60, 0xbe,
    0xf0, 0x4d, 0xaf, 0xbe, 0x58, 0x6c, 0x52, 0xbe,
    0x4c, 0x08, 0x13, 0xbe, 0x52, 0xa9, 0x60, 0xbe,
    0x73, 0x93, 0xa7, 0x3c, 0xb8, 0x8d, 0x09, 0xbe,
    0xbb, 0x7f, 0xda, 0xbe, 0x74, 0x46, 0x9d, 0xbe,
    0x29, 0x42, 0x8e, 0xbe, 0x60, 0xf7, 0xff, 0xff,
    0x64, 0xf7, 0xff, 0xff, 0x0f, 0x00, 0x00, 0x00,
    0x4d, 0x4c, 0x49, 0x52, 0x20, 0x43, 0x6f, 0x6e,
    0x76, 0x65, 0x72, 0x74, 0x65, 0x64, 0x2e, 0x00,
    0x01, 0x00, 0x00, 0x00, 0x14, 0x00, 0x00, 0x00,
    0x00, 0x00, 0x0e, 0x00, 0x18, 0x00, 0x14, 0x00,
    0x10, 0x00, 0x0c, 0x00, 0x08, 0x00, 0x04, 0x00,
    0x0e, 0x00, 0x00, 0x00, 0x14, 0x00, 0x00, 0x00,
    0x1c, 0x00, 0x00, 0x00, 0x78, 0x01, 0x00, 0x00,
    0x7c, 0x01, 0x00, 0x00, 0x80, 0x01, 0x00, 0x00,
    0x04, 0x00, 0x00, 0x00, 0x6d, 0x61, 0x69, 0x6e,
    0x00, 0x00, 0x00, 0x00, 0x05, 0x00, 0x00, 0x00,
    0x20, 0x01, 0x00, 0x00, 0xcc, 0x00, 0x00, 0x00,
    0x84, 0x00, 0x00, 0x00, 0x50, 0x00, 0x00, 0x00,
    0x14, 0x00, 0x00, 0x00, 0x00, 0x00, 0x0e, 0x00,
    0x1a, 0x00, 0x14, 0x00, 0x10, 0x00, 0x0c, 0x00,
    0x0b, 0x00, 0x04, 0x00, 0x0e, 0x00, 0x00, 0x00,
    0x1c, 0x00, 0x00, 0x00, 0x00, 0x00, 0x00, 0x09,
    0x1c, 0x00, 0x00, 0x00, 0x20, 0x00, 0x00, 0x00,
    0x01, 0x00, 0x00, 0x00, 0x00, 0x00, 0x06, 0x00,
    0x08, 0x00, 0x04, 0x00, 0x06, 0x00, 0x00, 0x00,
    0x00, 0x00, 0x80, 0x3f, 0x01, 0x00, 0x00, 0x00,
    0x0d, 0x00, 0x00, 0x00, 0x01, 0x00, 0x00, 0x00,
    0x0c, 0x00, 0x00, 0x00, 0x9a, 0xff, 0xff, 0xff,
    0x10, 0x00, 0x00, 0x00, 0x00, 0x00, 0x00, 0x08,
    0x0c, 0x00, 0x00, 0x00, 0x10, 0x00, 0x00, 0x00,
    0x2c, 0xf8, 0xff, 0xff, 0x01, 0x00, 0x00, 0x00,
    0x0c, 0x00, 0x00, 0x00, 0x03, 0x00, 0x00, 0x00,
    0x0b, 0x00, 0x00, 0x00, 0x06, 0x00, 0x00, 0x00,
    0x05, 0x00, 0x00, 0x00, 0xca, 0xff, 0xff, 0xff,
    0x10, 0x00, 0x00, 0x00, 0x00, 0x00, 0x00, 0x08,
    0x10, 0x00, 0x00, 0x00, 0x14, 0x00, 0x00, 0x00,
    0x6a, 0xff, 0xff, 0xff, 0x00, 0x00, 0x00, 0x01,
    0x01, 0x00, 0x00, 0x00, 0x0b, 0x00, 0x00, 0x00,
    0x03, 0x00, 0x00, 0x00, 0x0a, 0x00, 0x00, 0x00,
    0x07, 0x00, 0x00, 0x00, 0x03, 0x00, 0x00, 0x00,
    0x00, 0x00, 0x0e, 0x00, 0x14, 0x00, 0x00, 0x00,
    0x10, 0x00, 0x0c, 0x00, 0x0b, 0x00, 0x04, 0x00,
    0x0e, 0x00, 0x00, 0x00, 0x1c, 0x00, 0x00, 0x00,
    0x00, 0x00, 0x00, 0x08, 0x1c, 0x00, 0x00, 0x00,
    0x20, 0x00, 0x00, 0x00, 0x0c, 0x00, 0x08, 0x00,
    0x07, 0x00, 0x00, 0x00, 0x00, 0x00, 0x06, 0x00,
    0x0c, 0x00, 0x00, 0x00, 0x00, 0x00, 0x01, 0x01,
    0x01, 0x00, 0x00, 0x00, 0x0a, 0x00, 0x00, 0x00,
    0x03, 0x00, 0x00, 0x00, 0x09, 0x00, 0x00, 0x00,
    0x08, 0x00, 0x00, 0x00, 0x04, 0x00, 0x00, 0x00,
    0x00, 0x00, 0x0e, 0x00, 0x16, 0x00, 0x00, 0x00,
    0x10, 0x00, 0x0c, 0x00, 0x0b, 0x00, 0x04, 0x00,
    0x0e, 0x00, 0x00, 0x00, 0x18, 0x00, 0x00, 0x00,
    0x00, 0x00, 0x00, 0x08, 0x18, 0x00, 0x00, 0x00,
    0x1c, 0x00, 0x00, 0x00, 0x00, 0x00, 0x06, 0x00,
    0x08, 0x00, 0x07, 0x00, 0x06, 0x00, 0x00, 0x00,
    0x00, 0x00, 0x00, 0x01, 0x01, 0x00, 0x00, 0x00,
    0x09, 0x00, 0x00, 0x00, 0x03, 0x00, 0x00, 0x00,
    0x00, 0x00, 0x00, 0x00, 0x02, 0x00, 0x00, 0x00,
    0x01, 0x00, 0x00, 0x00, 0x01, 0x00, 0x00, 0x00,
    0x0d, 0x00, 0x00, 0x00, 0x01, 0x00, 0x00, 0x00,
    0x00, 0x00, 0x00, 0x00, 0x0e, 0x00, 0x00, 0x00,
    0xac, 0x06, 0x00, 0x00, 0x58, 0x06, 0x00, 0x00,
    0x00, 0x06, 0x00, 0x00, 0xc4, 0x05, 0x00, 0x00,
    0x88, 0x05, 0x00, 0x00, 0x4c, 0x05, 0x00, 0x00,
    0x0c, 0x05, 0x00, 0x00, 0xcc, 0x04, 0x00, 0x00,
    0xe8, 0x02, 0x00, 0x00, 0x2c, 0x02, 0x00, 0x00,
    0x88, 0x01, 0x00, 0x00, 0xe4, 0x00, 0x00, 0x00,
    0x60, 0x00, 0x00, 0x00, 0x04, 0x00, 0x00, 0x00,
    0xa2, 0xf9, 0xff, 0xff, 0x00, 0x00, 0x00, 0x01,
    0x14, 0x00, 0x00, 0x00, 0x1c, 0x00, 0x00, 0x00,
    0x1c, 0x00, 0x00, 0x00, 0x0e, 0x00, 0x00, 0x00,
    0x34, 0x00, 0x00, 0x00, 0x02, 0x00, 0x00, 0x00,
    0xff, 0xff, 0xff, 0xff, 0x06, 0x00, 0x00, 0x00,
    0x8c, 0xf9, 0xff, 0xff, 0x1b, 0x00, 0x00, 0x00,
    0x53, 0x74, 0x61, 0x74, 0x65, 0x66, 0x75, 0x6c,
    0x50, 0x61, 0x72, 0x74, 0x69, 0x74, 0x69, 0x6f,
    0x6e, 0x65, 0x64, 0x43, 0x61, 0x6c, 0x6c, 0x5f,
    0x31, 0x3a, 0x30, 0x00, 0x02, 0x00, 0x00, 0x00,
    0x01, 0x00, 0x00, 0x00, 0x06, 0x00, 0x00, 0x00,
    0xfa, 0xf9, 0xff, 0xff, 0x00, 0x00, 0x00, 0x01,
    0x14, 0x00, 0x00, 0x00, 0x1c, 0x00, 0x00, 0x00,
    0x1c, 0x00, 0x00, 0x00, 0x0d, 0x00, 0x00, 0x00,
    0x5c, 0x00, 0x00, 0x00, 0x02, 0x00, 0x00, 0x00,
    0xff, 0xff, 0xff, 0xff, 0x06, 0x00, 0x00, 0x00,
    0xe4, 0xf9, 0xff, 0xff, 0x42, 0x00, 0x00, 0x00,
    0x73, 0x65, 0x71, 0x75, 0x65, 0x6e, 0x74, 0x69,
    0x61, 0x6c, 0x5f, 0x39, 0x5f, 0x31, 0x2f, 0x64,
    0x65, 0x6e, 0x73, 0x65, 0x5f, 0x33, 0x33, 0x5f,
    0x31, 0x2f, 0x4d, 0x61, 0x74, 0x4d, 0x75, 0x6c,
    0x3b, 0x73, 0x65, 0x71, 0x75, 0x65, 0x6e, 0x74,
    0x69, 0x61, 0x6c, 0x5f, 0x39, 0x5f, 0x31, 0x2f,
    0x64, 0x65, 0x6e, 0x73, 0x65, 0x5f, 0x33, 0x33,
    0x5f, 0x31, 0x2f, 0x42, 0x69, 0x61, 0x73, 0x41,
    0x64, 0x64, 0x00, 0x00, 0x02, 0x00, 0x00, 0x00,
    0x01, 0x00, 0x00, 0x00, 0x06, 0x00, 0x00, 0x00,
    0x7a, 0xfa, 0xff, 0xff, 0x00, 0x00, 0x00, 0x01,
    0x14, 0x00, 0x00, 0x00, 0x1c, 0x00, 0x00, 0x00,
    0x1c, 0x00, 0x00, 0x00, 0x0c, 0x00, 0x00, 0x00,
    0x7c, 0x00, 0x00, 0x00, 0x02, 0x00, 0x00, 0x00,
    0xff, 0xff, 0xff, 0xff, 0x10, 0x00, 0x00, 0x00,
    0x64, 0xfa, 0xff, 0xff, 0x61, 0x00, 0x00, 0x00,
    0x73, 0x65, 0x71, 0x75, 0x65, 0x6e, 0x74, 0x69,
    0x61, 0x6c, 0x5f, 0x39, 0x5f, 0x31, 0x2f, 0x64,
    0x65, 0x6e, 0x73, 0x65, 0x5f, 0x33, 0x32, 0x5f,
    0x31, 0x2f, 0x4d, 0x61, 0x74, 0x4d, 0x75, 0x6c,
    0x3b, 0x73, 0x65, 0x71, 0x75, 0x65, 0x6e, 0x74,
    0x69, 0x61, 0x6c, 0x5f, 0x39, 0x5f, 0x31, 0x2f,
    0x64, 0x65, 0x6e, 0x73, 0x65, 0x5f, 0x33, 0x32,
    0x5f, 0x31, 0x2f, 0x52, 0x65, 0x6c, 0x75, 0x3b,
    0x73, 0x65, 0x71, 0x75, 0x65, 0x6e, 0x74, 0x69,
    0x61, 0x6c, 0x5f, 0x39, 0x5f, 0x31, 0x2f, 0x64,
    0x65, 0x6e, 0x73, 0x65, 0x5f, 0x33, 0x32, 0x5f,
    0x31, 0x2f, 0x42, 0x69, 0x61, 0x73, 0x41, 0x64,
    0x64, 0x00, 0x00, 0x00, 0x02, 0x00, 0x00, 0x00,
    0x01, 0x00, 0x00, 0x00, 0x10, 0x00, 0x00, 0x00,
    0x1a, 0xfb, 0xff, 0xff, 0x00, 0x00, 0x00, 0x01,
    0x14, 0x00, 0x00, 0x00, 0x1c, 0x00, 0x00, 0x00,
    0x1c, 0x00, 0x00, 0x00, 0x0b, 0x00, 0x00, 0x00,
    0x7c, 0x00, 0x00, 0x00, 0x02, 0x00, 0x00, 0x00,
    0xff, 0xff, 0xff, 0xff, 0x20, 0x00, 0x00, 0x00,
    0x04, 0xfb, 0xff, 0xff, 0x61, 0x00, 0x00, 0x00,
    0x73, 0x65, 0x71, 0x75, 0x65, 0x6e, 0x74, 0x69,
    0x61, 0x6c, 0x5f, 0x39, 0x5f, 0x31, 0x2f, 0x64,
    0x65, 0x6e, 0x73, 0x65, 0x5f, 0x33, 0x31, 0x5f,
    0x31, 0x2f, 0x4d, 0x61, 0x74, 0x4d, 0x75, 0x6c,
    0x3b, 0x73, 0x65, 0x71, 0x75, 0x65, 0x6e, 0x74,
    0x69, 0x61, 0x6c, 0x5f, 0x39, 0x5f, 0x31, 0x2f,
    0x64, 0x65, 0x6e, 0x73, 0x65, 0x5f, 0x33, 0x31,
    0x5f, 0x31, 0x2f, 0x52, 0x65, 0x6c, 0x75, 0x3b,
    0x73, 0x65, 0x71, 0x75, 0x65, 0x6e, 0x74, 0x69,
    0x61, 0x6c, 0x5f, 0x39, 0x5f, 0x31, 0x2f, 0x64,
    0x65, 0x6e, 0x73, 0x65, 0x5f, 0x33, 0x31, 0x5f,
    0x31, 0x2f, 0x42, 0x69, 0x61, 0x73, 0x41, 0x64,
    0x64, 0x00, 0x00, 0x00, 0x02, 0x00, 0x00, 0x00,
    0x01, 0x00, 0x00, 0x00, 0x20, 0x00, 0x00, 0x00,
    0xba, 0xfb, 0xff, 0xff, 0x00, 0x00, 0x00, 0x01,
    0x14, 0x00, 0x00, 0x00, 0x1c, 0x00, 0x00, 0x00,
    0x1c, 0x00, 0x00, 0x00, 0x0a, 0x00, 0x00, 0x00,
    0x7c, 0x00, 0x00, 0x00, 0x02, 0x00, 0x00, 0x00,
    0xff, 0xff, 0xff, 0xff, 0x40, 0x00, 0x00, 0x00,
    0xa4, 0xfb, 0xff, 0xff, 0x61, 0x00, 0x00, 0x00,
    0x73, 0x65, 0x71, 0x75, 0x65, 0x6e, 0x74, 0x69,
    0x61, 0x6c, 0x5f, 0x39, 0x5f, 0x31, 0x2f, 0x64,
    0x65, 0x6e, 0x73, 0x65, 0x5f, 0x33, 0x30, 0x5f,
    0x31, 0x2f, 0x4d, 0x61, 0x74, 0x4d, 0x75, 0x6c,
    0x3b, 0x73, 0x65, 0x71, 0x75, 0x65, 0x6e, 0x74,
    0x69, 0x61, 0x6c, 0x5f, 0x39, 0x5f, 0x31, 0x2f,
    0x64, 0x65, 0x6e, 0x73, 0x65, 0x5f, 0x33, 0x30,
    0x5f, 0x31, 0x2f, 0x52, 0x65, 0x6c, 0x75, 0x3b,
    0x73, 0x65, 0x71, 0x75, 0x65, 0x6e, 0x74, 0x69,
    0x61, 0x6c, 0x5f, 0x39, 0x5f, 0x31, 0x2f, 0x64,
    0x65, 0x6e, 0x73, 0x65, 0x5f, 0x33, 0x30, 0x5f,
    0x31, 0x2f, 0x42, 0x69, 0x61, 0x73, 0x41, 0x64,
    0x64, 0x00, 0x00, 0x00, 0x02, 0x00, 0x00, 0x00,
    0x01, 0x00, 0x00, 0x00, 0x40, 0x00, 0x00, 0x00,
    0x00, 0x00, 0x16, 0x00, 0x1c, 0x00, 0x18, 0x00,
    0x17, 0x00, 0x10, 0x00, 0x0c, 0x00, 0x08, 0x00,
    0x00, 0x00, 0x00, 0x00, 0x00, 0x00, 0x07, 0x00,
    0x16, 0x00, 0x00, 0x00, 0x00, 0x00, 0x00, 0x01,
    0x20, 0x00, 0x00, 0x00, 0xb0, 0x01, 0x00, 0x00,
    0x09, 0x00, 0x00, 0x00, 0x00, 0x00, 0x00, 0x09,
    0xbc, 0x01, 0x00, 0x00, 0x0c, 0x00, 0x0c, 0x00,
    0x00, 0x00, 0x00, 0x00, 0x08, 0x00, 0x04, 0x00,
    0x0c, 0x00, 0x00, 0x00, 0x08, 0x00, 0x00, 0x00,
    0x08, 0x01, 0x00, 0x00, 0x20, 0x00, 0x00, 0x00,
    0x00, 0x00, 0x00, 0x00, 0x00, 0x00, 0x00, 0x00,
    0x00, 0x00, 0x00, 0x00, 0x00, 0x00, 0x00, 0x00,
    0x00, 0x00, 0x00, 0x00, 0x00, 0x00, 0x00, 0x00,
    0x00, 0x00, 0x00, 0x00, 0x00, 0x00, 0x00, 0x00,
    0x00, 0x00, 0x00, 0x00, 0x00, 0x00, 0x00, 0x00,
    0x00, 0x00, 0x00, 0x00, 0x00, 0x00, 0x00, 0x00,
    0x00, 0x00, 0x00, 0x00, 0x00, 0x00, 0x00, 0x00,
    0x00, 0x00, 0x00, 0x00, 0x00, 0x00, 0x00, 0x00,
    0x00, 0x00, 0x00, 0x00, 0x00, 0x00, 0x00, 0x00,
    0x00, 0x00, 0x00, 0x00, 0x00, 0x00, 0x00, 0x00,
    0x00, 0x00, 0x00, 0x00, 0x00, 0x00, 0x00, 0x00,
    0x00, 0x00, 0x00, 0x00, 0x00, 0x00, 0x00, 0x00,
    0x00, 0x00, 0x00, 0x00, 0x00, 0x00, 0x00, 0x00,
    0x00, 0x00, 0x00, 0x00, 0x00, 0x00, 0x00, 0x00,
    0x00, 0x00, 0x00, 0x00, 0x00, 0x00, 0x00, 0x00,
    0x00, 0x00, 0x00, 0x00, 0x00, 0x00, 0x00, 0x00,
    0x00, 0x00, 0x00, 0x00, 0x00, 0x00, 0x00, 0x00,
    0x00, 0x00, 0x00, 0x00, 0x00, 0x00, 0x00, 0x00,
    0x00, 0x00, 0x00, 0x00, 0x00, 0x00, 0x00, 0x00,
    0x00, 0x00, 0x00, 0x00, 0x00, 0x00, 0x00, 0x00,
    0x00, 0x00, 0x00, 0x00, 0x00, 0x00, 0x00, 0x00,
    0x00, 0x00, 0x00, 0x00, 0x00, 0x00, 0x00, 0x00,
    0x00, 0x00, 0x00, 0x00, 0x00, 0x00, 0x00, 0x00,
    0x00, 0x00, 0x00, 0x00, 0x00, 0x00, 0x00, 0x00,
    0x00, 0x00, 0x00, 0x00, 0x00, 0x00, 0x00, 0x00,
    0x00, 0x00, 0x00, 0x00, 0x00, 0x00, 0x00, 0x00,
    0x00, 0x00, 0x00, 0x00, 0x00, 0x00, 0x00, 0x00,
    0x00, 0x00, 0x00, 0x00, 0x00, 0x00, 0x00, 0x00,
    0x00, 0x00, 0x00, 0x00, 0x00, 0x00, 0x00, 0x00,
    0x00, 0x00, 0x00, 0x00, 0x00, 0x00, 0x00, 0x00,
    0x00, 0x00, 0x00, 0x00, 0x00, 0x00, 0x00, 0x00,
    0x00, 0x00, 0x00, 0x00, 0x00, 0x00, 0x00, 0x00,
    0x20, 0x00, 0x00, 0x00, 0xf6, 0x32, 0x99, 0x3b,
    0x76, 0xb9, 0xc2, 0x3b, 0x8d, 0xc7, 0xf8, 0x3b,
    0xb9, 0x45, 0xc3, 0x3b, 0x65, 0x86, 0x1f, 0x3c,
    0x43, 0x9e, 0xc8, 0x3b, 0x6b, 0x08, 0xdc, 0x3b,
    0xf8, 0x64, 0x03, 0x3c, 0xb7, 0xfa, 0xb7, 0x3b,
    0xf7, 0x59, 0xa1, 0x3b, 0x52, 0xfa, 0x00, 0x3c,
    0x77, 0x7d, 0xec, 0x3b, 0x68, 0xa3, 0x23, 0x3c,
    0xa6, 0x06, 0xe7, 0x3b, 0xab, 0x41, 0xb4, 0x3b,
    0x5b, 0xcb, 0x06, 0x3c, 0xfa, 0x8d, 0x81, 0x3b,
    0x4b, 0x8a, 0xe1, 0x3b, 0x8d, 0x6a, 0x81, 0x3b,
    0x2a, 0x6f, 0x03, 0x3c, 0x28, 0xfc, 0xdb, 0x3b,
    0x72, 0x7c, 0xa9, 0x3b, 0x34, 0xb6, 0x8c, 0x3b,
    0x6e, 0x7f, 0xd5, 0x3b, 0x05, 0x48, 0xbf, 0x3b,
    0x3e, 0xb7, 0xe0, 0x3b, 0x76, 0xb5, 0xe2, 0x3b,
    0x8d, 0x2c, 0xc0, 0x3b, 0xef, 0x92, 0xc8, 0x3b,
    0x8d, 0xb8, 0x97, 0x3b, 0xb4, 0x3c, 0x27, 0x3c,
    0x59, 0xa8, 0xa7, 0x3b, 0x11, 0x00, 0x00, 0x00,
    0x74, 0x66, 0x6c, 0x2e, 0x70, 0x73, 0x65, 0x75,
    0x64, 0x6f, 0x5f, 0x71, 0x63, 0x6f, 0x6e, 0x73,
    0x74, 0x00, 0x00, 0x00, 0x02, 0x00, 0x00, 0x00,
    0x20, 0x00, 0x00, 0x00, 0x40, 0x00, 0x00, 0x00,
    0xa2, 0xfe, 0xff, 0xff, 0x00, 0x00, 0x00, 0x01,
    0x10, 0x00, 0x00, 0x00, 0x10, 0x00, 0x00, 0x00,
    0x08, 0x00, 0x00, 0x00, 0x1c, 0x00, 0x00, 0x00,
    0x2c, 0xfe, 0xff, 0xff, 0x0f, 0x00, 0x00, 0x00,
    0x61, 0x72, 0x69, 0x74, 0x68, 0x2e, 0x63, 0x6f,
    0x6e, 0x73, 0x74, 0x61, 0x6e, 0x74, 0x36, 0x00,
    0x02, 0x00, 0x00, 0x00, 0x10, 0x00, 0x00, 0x00,
    0x20, 0x00, 0x00, 0x00, 0xde, 0xfe, 0xff, 0xff,
    0x00, 0x00, 0x00, 0x01, 0x10, 0x00, 0x00, 0x00,
    0x10, 0x00, 0x00, 0x00, 0x07, 0x00, 0x00, 0x00,
    0x1c, 0x00, 0x00, 0x00, 0x68, 0xfe, 0xff, 0xff,
    0x0f, 0x00, 0x00, 0x00, 0x61, 0x72, 0x69, 0x74,
    0x68, 0x2e, 0x63, 0x6f, 0x6e, 0x73, 0x74, 0x61,
    0x6e, 0x74, 0x35, 0x00, 0x02, 0x00, 0x00, 0x00,
    0x06, 0x00, 0x00, 0x00, 0x10, 0x00, 0x00, 0x00,
    0x1a, 0xff, 0xff, 0xff, 0x00, 0x00, 0x00, 0x01,
    0x10, 0x00, 0x00, 0x00, 0x10, 0x00, 0x00, 0x00,
    0x06, 0x00, 0x00, 0x00, 0x1c, 0x00, 0x00, 0x00,
    0xa4, 0xfe, 0xff, 0xff, 0x0f, 0x00, 0x00, 0x00,
    0x61, 0x72, 0x69, 0x74, 0x68, 0x2e, 0x63, 0x6f,
    0x6e, 0x73, 0x74, 0x61, 0x6e, 0x74, 0x34, 0x00,
    0x01, 0x00, 0x00, 0x00, 0x06, 0x00, 0x00, 0x00,
    0x52, 0xff, 0xff, 0xff, 0x00, 0x00, 0x00, 0x01,
    0x10, 0x00, 0x00, 0x00, 0x10, 0x00, 0x00, 0x00,
    0x05, 0x00, 0x00, 0x00, 0x1c, 0x00, 0x00, 0x00,
    0xdc, 0xfe, 0xff, 0xff, 0x0f, 0x00, 0x00, 0x00,
    0x61, 0x72, 0x69, 0x74, 0x68, 0x2e, 0x63, 0x6f,
    0x6e, 0x73, 0x74, 0x61, 0x6e, 0x74, 0x33, 0x00,
    0x01, 0x00, 0x00, 0x00, 0x20, 0x00, 0x00, 0x00,
    0x8a, 0xff, 0xff, 0xff, 0x00, 0x00, 0x00, 0x01,
    0x10, 0x00, 0x00, 0x00, 0x10, 0x00, 0x00, 0x00,
    0x04, 0x00, 0x00, 0x00, 0x1c, 0x00, 0x00, 0x00,
    0x14, 0xff, 0xff, 0xff, 0x0f, 0x00, 0x00, 0x00,
    0x61, 0x72, 0x69, 0x74, 0x68, 0x2e, 0x63, 0x6f,
    0x6e, 0x73, 0x74, 0x61, 0x6e, 0x74, 0x32, 0x00,
    0x01, 0x00, 0x00, 0x00, 0x10, 0x00, 0x00, 0x00,
    0xc2, 0xff, 0xff, 0xff, 0x00, 0x00, 0x00, 0x01,
    0x10, 0x00, 0x00, 0x00, 0x10, 0x00, 0x00, 0x00,
    0x03, 0x00, 0x00, 0x00, 0x1c, 0x00, 0x00, 0x00,
    0x4c, 0xff, 0xff, 0xff, 0x0f, 0x00, 0x00, 0x00,
    0x61, 0x72, 0x69, 0x74, 0x68, 0x2e, 0x63, 0x6f,
    0x6e, 0x73, 0x74, 0x61, 0x6e, 0x74, 0x31, 0x00,
    0x02, 0x00, 0x00, 0x00, 0x40, 0x00, 0x00, 0x00,
    0x06, 0x00, 0x00, 0x00, 0x00, 0x00, 0x16, 0x00,
    0x18, 0x00, 0x14, 0x00, 0x00, 0x00, 0x10, 0x00,
    0x0c, 0x00, 0x08, 0x00, 0x00, 0x00, 0x00, 0x00,
    0x00, 0x00, 0x07, 0x00, 0x16, 0x00, 0x00, 0x00,
    0x00, 0x00, 0x00, 0x01, 0x10, 0x00, 0x00, 0x00,
    0x10, 0x00, 0x00, 0x00, 0x02, 0x00, 0x00, 0x00,
    0x1c, 0x00, 0x00, 0x00, 0xa0, 0xff, 0xff, 0xff,
    0x0e, 0x00, 0x00, 0x00, 0x61, 0x72, 0x69, 0x74,
    0x68, 0x2e, 0x63, 0x6f, 0x6e, 0x73, 0x74, 0x61,
    0x6e, 0x74, 0x00, 0x00, 0x01, 0x00, 0x00, 0x00,
    0x40, 0x00, 0x00, 0x00, 0x00, 0x00, 0x16, 0x00,
    0x1c, 0x00, 0x18, 0x00, 0x00, 0x00, 0x14, 0x00,
    0x10, 0x00, 0x0c, 0x00, 0x00, 0x00, 0x00, 0x00,
    0x08, 0x00, 0x07, 0x00, 0x16, 0x00, 0x00, 0x00,
    0x00, 0x00, 0x00, 0x01, 0x14, 0x00, 0x00, 0x00,
    0x20, 0x00, 0x00, 0x00, 0x20, 0x00, 0x00, 0x00,
    0x01, 0x00, 0x00, 0x00, 0x40, 0x00, 0x00, 0x00,
    0x02, 0x00, 0x00, 0x00, 0xff, 0xff, 0xff, 0xff,
    0x06, 0x00, 0x00, 0x00, 0x04, 0x00, 0x04, 0x00,
    0x04, 0x00, 0x00, 0x00, 0x21, 0x00, 0x00, 0x00,
    0x73, 0x65, 0x72, 0x76, 0x69, 0x6e, 0x67, 0x5f,
    0x64, 0x65, 0x66, 0x61, 0x75, 0x6c, 0x74, 0x5f,
    0x6b, 0x65, 0x72, 0x61, 0x73, 0x5f, 0x74, 0x65,
    0x6e, 0x73, 0x6f, 0x72, 0x5f, 0x34, 0x35, 0x3a,
    0x30, 0x00, 0x00, 0x00, 0x02, 0x00, 0x00, 0x00,
    0x01, 0x00, 0x00, 0x00, 0x06, 0x00, 0x00, 0x00,
    0x02, 0x00, 0x00, 0x00, 0x2c, 0x00, 0x00, 0x00,
    0x10, 0x00, 0x00, 0x00, 0x0c, 0x00, 0x0c, 0x00,
    0x0b, 0x00, 0x00, 0x00, 0x00, 0x00, 0x04, 0x00,
    0x0c, 0x00, 0x00, 0x00, 0x19, 0x00, 0x00, 0x00,
    0x00, 0x00, 0x00, 0x19, 0x0c, 0x00, 0x10, 0x00,
    0x0f, 0x00, 0x00, 0x00, 0x08, 0x00, 0x04, 0x00,
    0x0c, 0x00, 0x00, 0x00, 0x09, 0x00, 0x00, 0x00,
    0x0c, 0x00, 0x00, 0x00, 0x00, 0x00, 0x00, 0x09
};

#endif // ENHANCED_ACTIVITY_MODEL_H
